807f807d7e000000
80807f7f80000000
828282807f000000
8081818080000000
82807f8281000000
7e7e7e7d7c000000
7f807d7e7d000000
808280827f000000
8080807f7f000000
8082818081000000
807e7e7f7d000000
7f80807d7e000000
8182808180000000
8281818182000000
8183818282000000
7f807e8181000000
7f7f7f8180000000
807f828182000000
7f83818383000000
8180808182000000
7d7f7e8080000000
7e7d7e7f81000000
7e7e7f8081000000
7f80818382000000
7f80808083000000
7e7e7f8181000000
7c7d7d7f82000000
7c7e808283000000
7e7f828183000000
8081808182000000
8281808183000000
8180828080000000
8182828281000000
818280817f000000
807f80807e000000
8080808382000000
8382838282000000
7f7f82817f000000
7f80827f7e000000
81817f807e000000
7f82817f82000000
817f808181000000
7e7f7e807e000000
7f7d7f807d000000
7d7f7d7f7c000000
8080827f82000000
7f7f7f7f80000000
817f808181000000
838081817f000000
8282817f82000000
7f817f7f81000000
7f7e7f7e7f000000
7f817e7f81000000
828082817f000000
8081808182000000
7d7e7e7e7e000000
807d7d7f7f000000
7e80818081000000
81807f8280000000
8082808083000000
80807d7d7c000000
7f80807f7c000000
82817e817d000000
828081807e000000
7f81818281000000
7f7e7f7f7c000000
7f827f7e7f000000
808082807e000000
8083837f81000000
8082838381000000
807e7e7b7f000000
8180807f80000000
8482838180000000
8284828182000000
8184848581000000
8282827f7f000000
8281818080000000
80827f827f000000
8380807f82000000
8083828282000000
807f807f80000000
827f7e807f000000
818181807e000000
818282807f000000
7f81817f80000000
7e7f7d7e7e000000
7e7e7d807e000000
81807f7f7f000000
7f82807e7f000000
81807f8281000000
817e7e7d7d000000
7e817e7f7f000000
7f7f7f7e7d000000
817f807e80000000
817e81817f000000
807f7e7e80000000
7f7f7f8180000000
818081817f000000
808281827f000000
8081828180000000
82807f7f7f000000
828381827f000000
8384818182000000
8282828483000000
8281838482000000
7d807d7f80000000
7f7e7e7f7e000000
807f7f8080000000
807f828282000000
7e7f828280000000
7f81817e7f000000
7f7f7f7f7f000000
7f81808182000000
7e82828281000000
807f838380000000
82827f8181000000
8280818382000000
8382818481000000
7f81848382000000
8181818383000000
808180827e000000
7f8280817f000000
8280828180000000
7f80817f7f000000
81817f7e7d000000
818180827e000000
8283818282000000
8381838081000000
818183817f000000
817f7e7f7e000000
8382848282000000
8383848580000000
8383838280000000
838382827f000000
8280808180000000
8180808182000000
8182838180000000
8280838082000000
8081838380000000
8080808081000000
80837f8280000000
7f82828382000000
8282838183000000
8180828381000000
7f80808381000000
7f82817f81000000
7f807f8382000000
7f80808381000000
8082808180000000
8080808181000000
7e81807f7f000000
7f8181827e000000
817f82817f000000
817f82807f000000
818282827e000000
7e7f81807e000000
7f8181827f000000
8282828381000000
8183828382000000
818081817f000000
818181817f000000
8081848282000000
8382838382000000
8283828480000000
8082838382000000
817f817e7e000000
8080818181000000
818181807f000000
8081838380000000
7f8082817f000000
7f8180817e000000
8280828280000000
8081818180000000
8283828482000000
8181808283000000
7e7e7e817f000000
8080827f80000000
7f80828281000000
8182808181000000
7f82818383000000
817f7e7e7d000000
817e7f817f000000
807f828280000000
7f81807e7d000000
7f80827f7d000000
818281807f000000
818280827f000000
8383818081000000
8280808180000000
82827f8180000000
8381837f7e000000
8484828381000000
8484828281000000
838382827f000000
8380838280000000
8281807d7d000000
80817f7f7f000000
8182807f80000000
8380807f7f000000
8080828280000000
7e7f7f7d7d000000
7e7f7f807f000000
8080827f7e000000
8183808081000000
8281818082000000
7f7e807f80000000
7f807e7d7d000000
827f7e817e000000
8283808281000000
8181838181000000
8181838081000000
8482818181000000
818080817f000000
7f7f7e817d000000
7f81808182000000
8282828283000000
8081808281000000
7e7f7e7e7e000000
7e807e7f7d000000
8181818181000000
8383818382000000
82807f807f000000
7f7f7f7e7c000000
7d7d7e7d7e000000
7e7f7f7e80000000
8180818181000000
8381808182000000
8182818280000000
8280827f7f000000
8281818281000000
818082807e000000
817f80807f000000
817f82807e000000
8080807f80000000
8280817f80000000
8081817f80000000
817f827f7f000000
7f7f817e7d000000
7f7e807e7e000000
7f817e7f7e000000
808182807f000000
7f83818380000000
8281848183000000
7f82818181000000
8082838381000000
7f82828181000000
7f83818381000000
8083838282000000
7f82848181000000
8082808181000000
7e807f8181000000
8181817f7f000000
8083828380000000
8183818181000000
8282818180000000
8080838080000000
817f818080000000
7e7f7f7e7f000000
8180838181000000
8180818281000000
8081808080000000
7e7f7e807f000000
7e7d7f7e80000000
8180807f82000000
8082838083000000
827f807f81000000
7f7e7d7d7f000000
7c7e7d7e81000000
8181828083000000
7f81828281000000
8280808281000000
828180827f000000
8280818182000000
8281808280000000
82807f807e000000
8082817f82000000
8181838080000000
8080818382000000
838082827f000000
8281817f7f000000
7f7f7f8181000000
8181818282000000
82817f827f000000
817f80837f000000
7f817f807e000000
818181817f000000
82817f8081000000
8082808080000000
8381808280000000
8281818182000000
7f7e7f7e7e000000
8081807e81000000
808280817f000000
7f807f807f000000
8281818082000000
7e807e7f7e000000
807e7e7f7e000000
7f7e7f807e000000
7f7f817f81000000
8282808280000000
807f7e7f82000000
7e7d7e7f82000000
7e7d7f7f82000000
7d7f818281000000
7f80818180000000
7e827e8080000000
7f7f818082000000
7e7f7f8081000000
7f7e817f81000000
7d817f8281000000
81817f8282000000
807f818384000000
8081828183000000
7e81828182000000
7f7f828281000000
8181808080000000
7f82818080000000
8282828283000000
828183827f000000
8082827f80000000
8181818082000000
8180818382000000
8283838383000000
8183828381000000
8181828080000000
8180808280000000
7f81828382000000
8182838181000000
7f8082807f000000
80807f807e000000
808280827e000000
8183808080000000
8082818081000000
7f81828181000000
8281808282000000
818081817e000000
8281817f7f000000
8182828181000000
818381837f000000
828081807f000000
7f817f7e7e000000
807e7f7e7f000000
817f7f7e80000000
7f81828081000000
8180828181000000
827f7f7e7d000000
8281807e7d000000
8181817f7f000000
8082838081000000
818282817f000000
827f7e7e7d000000
80807f8080000000
8183837f7e000000
8381838380000000
8183818181000000
817e7e807e000000
807f80807e000000
818280807f000000
8282838180000000
8183818082000000
80807e7e7e000000
8180807e7e000000
82807f807f000000
82827f8280000000
8183808181000000
817f7d7d7f000000
7f7f7d807f000000
828280807e000000
838080837f000000
838181837f000000
807d7d7e7f000000
817f7e7e7e000000
8380807e7f000000
8381808282000000
8281818180000000
7f82818081000000
7e8183807f000000
8080828282000000
8380828281000000
8183837f80000000
80817f7f81000000
8082817f80000000
8282828082000000
8283828182000000
818283807f000000
7e81807f7f000000
7f81817f81000000
8181818180000000
828083817f000000
8183818080000000
83817f807f000000
8081808180000000
8383828281000000
8082807f7f000000
818282807f000000
7f80807f7f000000
83807f8181000000
8381818182000000
8182807f7f000000
8180827f7f000000
8180817f7d000000
8282807e7f000000
81807e7e7e000000
7f807f807e000000
7f807e7d80000000
7d7f807e7e000000
807f7e7f7f000000
7e7f7d7f80000000
7f7e817f81000000
81807f7f82000000
7e7d7e7f7f000000
7f80808081000000
827e7f7f80000000
81817f7f80000000
818180827f000000
8081818183000000
8280828282000000
8381808280000000
8282818181000000
8182808283000000
8081807f81000000
8181807f80000000
8282808182000000
8181808282000000
7f80828280000000
807f80817e000000
8180828280000000
8381838382000000
8082808383000000
807f838182000000
8181838281000000
8083818180000000
8282828382000000
8381838482000000
7f81838382000000
8183817f80000000
808180807f000000
818180807e000000
8080818280000000
8281818180000000
82817f7e80000000
7f80808080000000
8180807e7d000000
8082808280000000
8181808081000000
80807e807f000000
7e7e7f7d7d000000
81807f807d000000
7f82808180000000
8081828081000000
7e80818282000000
8082808483000000
8081818482000000
8181848280000000
8183828181000000
808181817f000000
7f8283827f000000
8182818282000000
8182818181000000
808183827f000000
8282818082000000
8282848382000000
8281828080000000
8181838380000000
7f8080817e000000
807f80807e000000
8180828280000000
8282807f81000000
8283838382000000
8081827f82000000
7f817f7e7e000000
7f7f7f817e000000
8181828181000000
8380817f7f000000
828083827f000000
7e7e807e7f000000
807f7e7f7d000000
807e7f7f80000000
7f7f817f7e000000
7f8180807e000000
