7f8282807f000000
80807f7f80000000
7e80807e7f000000
807d7f8081000000
7f7e7f8081000000
83807f7c7d000000
81807e7b7c000000
82817d7d7d000000
827f7e7c7f000000
8281808182000000
7f7e808080000000
7e7d80807f000000
7e807f8081000000
8081828082000000
8182818282000000
8081818180000000
8180807d7e000000
81807e7f7e000000
807e7e8081000000
8080808082000000
8082828280000000
7f8182807f000000
7f81827f7f000000
807f7f8080000000
7f7e80807f000000
7f817f817f000000
807f7e807f000000
7f7d7f7f80000000
7d7d7d7e80000000
807d808080000000
818280807f000000
808281807f000000
8180828181000000
7f80818280000000
7f7f7f8080000000
8180808180000000
8081827f7f000000
8080828180000000
8182828081000000
808080817f000000
7f7e807f7f000000
807f7f7f80000000
7f80818180000000
8182828281000000
8081808180000000
8081818182000000
8180808080000000
808181817f000000
808281807f000000
7f7f818081000000
81817f8080000000
7f8180807f000000
8080827f80000000
8180818180000000
7f81828081000000
807f817f81000000
7f81818181000000
8180818180000000
7f81818181000000
8080808081000000
8081808181000000
7f7f808280000000
8180828081000000
8080808081000000
818180817f000000
8082828280000000
807e7f807f000000
7f7d7e7f7f000000
807e7f7f80000000
807f7d7e7e000000
817e7e7e7e000000
7f7e7e7e7f000000
7f7d7e7d7f000000
7e7e7f7f81000000
8083818483000000
7f7e807f80000000
7f7d7e7f7f000000
7e7e7e7f7f000000
7f7e7f807f000000
7f7f818180000000
817f807f81000000
7f81808080000000
8181818180000000
808081817f000000
81807f807f000000
838381807e000000
80807f7d7e000000
80807f7e7f000000
7f807e7e82000000
8280808182000000
7f807f8080000000
7f7f817f81000000
8081818081000000
8180808080000000
8081808181000000
8080808181000000
80807f7f7f000000
7e7f7f7f7f000000
7f7f7d7d80000000
7f7f7f8080000000
8181817f7f000000
83817f7e80000000
8383807e7e000000
828380807e000000
8484808081000000
7f81808080000000
7f80828080000000
7f82807f80000000
8081828080000000
808181827f000000
7f80808080000000
7f80817f81000000
817f817f80000000
7e80818181000000
7f80807f7f000000
7f82807f81000000
8081818080000000
8180808181000000
7f7f818080000000
8080818180000000
7f817f8081000000
807e807f80000000
807d7f7e7f000000
7f7d7e7e81000000
807e7e7e7e000000
80807f8180000000
808181817f000000
7f7f808181000000
8181818080000000
8081808180000000
7f807f7f81000000
7e7e7f7f82000000
807f7f7f81000000
807e7f8181000000
7f817f8180000000
8182808180000000
8282828081000000
8282828180000000
8280808181000000
80817f7f80000000
8080818082000000
8181808081000000
808180817f000000
8080808081000000
807f817f7f000000
8081808180000000
7f7f7f7d80000000
7f7e7d7e80000000
7d7d7c7e80000000
807d7d7f80000000
8081817f81000000
7f8082817f000000
8080827f81000000
818181807f000000
8081818180000000
7f80808282000000
7f7e7f807f000000
7e7e80817f000000
7e7d7e8081000000
7f7e7f7e80000000
8280807e7e000000
7f81817f7e000000
7f7f7f7d7d000000
7f7e7e7d7e000000
7e7f7d7e7f000000
8283827f7d000000
838282807d000000
8281807e7b000000
8281807e7e000000
807f7f8080000000
7f7f7f7e80000000
7f7e7f807f000000
7e7e7e7e80000000
817f808081000000
8282828182000000
828180817f000000
8181807f7f000000
7e7f807d7d000000
7f7f7e7e7d000000
7f7e7e7e7e000000
8280818181000000
808181827f000000
807f808181000000
7f7f80817f000000
7f807e8080000000
7f817f807f000000
7f7e807e7f000000
7e7f7e7d7e000000
7f7e7d7e7e000000
807f7e8080000000
8280828281000000
8283818081000000
8182828180000000
8182818080000000
8080807f7f000000
8180808180000000
808082807f000000
8081828280000000
818082827f000000
7f817f8080000000
7f7f808080000000
8181818081000000
8182828081000000
8180828182000000
8180808182000000
80807f8080000000
7f82818080000000
8081808281000000
8081818280000000
7f81808080000000
7f8081817f000000
8180818181000000
8180828180000000
8080828182000000
808182827f000000
807f808181000000
8181818080000000
8281808281000000
808182817f000000
8081817f80000000
7f8181817f000000
8082818180000000
8182808080000000
8082828080000000
8181818080000000
8180808080000000
8180817f81000000
7e7e7d7f7d000000
7f807e7e7d000000
80807f7f7f000000
7e7f7f7f7f000000
807f7e7f7f000000
7d7e7d7c7f000000
7e7d7f7d7f000000
7f7f7f8080000000
7e7f7e7e7f000000
7f7f7f807f000000
7e7d7f7f80000000
7f7d7e7f7f000000
807e7e7f81000000
817f817f7f000000
818081827f000000
8080808181000000
7f82808180000000
8182818081000000
818281807f000000
808181807f000000
7f80807e7e000000
7f807e7d7d000000
7e7e7f7e81000000
81807f8180000000
8180818081000000
8081818080000000
8082808181000000
8180817f80000000
817f7f7f81000000
807e7f7e7f000000
7e7f7d7e7f000000
7e7e7e7e7e000000
7e7e7f7e7f000000
808180807f000000
8183807f7e000000
8283827f7f000000
8282807f80000000
818282807f000000
80807f807f000000
8180818180000000
8282818181000000
8180828181000000
8181818182000000
8280817f80000000
8180808181000000
808181807f000000
7f817f8180000000
808180807f000000
8280818181000000
8081828080000000
8180808281000000
7f81818181000000
7f81808081000000
808081817f000000
8081808080000000
807e7f7e7f000000
7e7e7e7e7e000000
7e7f807f80000000
807f808081000000
7f80808180000000
8180808081000000
8182818181000000
807f808182000000
807f7f8181000000
80817f8080000000
7e817f8180000000
7f80807f80000000
81807f8280000000
828282817f000000
8282838281000000
828181827f000000
828181807f000000
8180808080000000
807f7f7f81000000
807f808180000000
8181828081000000
7f80828081000000
8180808182000000
807f7f7f7f000000
817e807f80000000
7f7f7f7f7e000000
7e7f7e7e7e000000
7f7f7e7f7f000000
818181807f000000
808080807f000000
8280818281000000
818282817f000000
7f82808181000000
7f7e807f81000000
807f7f8182000000
7d7e7f7e7f000000
7e7e7e8080000000
807f808080000000
7f817f7f7e000000
7e7f80817f000000
8080828381000000
8080828281000000
7e7e818281000000
7f80808183000000
8181818383000000
8082818181000000
8281817f80000000
817f7e7d7e000000
7f82818181000000
8280828282000000
8282807f7f000000
8281838080000000
8182838381000000
817f818180000000
8281838381000000
8082808282000000
8282808282000000
80807e807f000000
7e7f7f7f7f000000
7e7f81807f000000
7e7e818181000000
7e80818181000000
7e7e7f7f7f000000
8181828180000000
8284858281000000
8083848582000000
8082828283000000
8080818182000000
7d7e7f7f7f000000
7e7d7e7e7e000000
7c7d7e807f000000
7d7e808081000000
7f7e7f7f80000000
7f80807e80000000
7f7f7f7f7f000000
7f7f81817f000000
7f7f808081000000
7f7f7f7f7f000000
807f807f81000000
7e80808181000000
807f808080000000
8080808180000000
817f818080000000
80817f7e7f000000
7f7f7f7f7f000000
7f8180807f000000
8180828180000000
8180828081000000
7f807f8080000000
7e7f808080000000
807f828081000000
807f808281000000
808080807f000000
7f7f7f7f7f000000
7f7f807f7f000000
8180828181000000
8181818181000000
817f808080000000
7e8080807f000000
7e7f7f807e000000
7e7f7f817f000000
7f80808180000000
7f80817f81000000
7e81807f7f000000
808182817f000000
7e80828180000000
7f81828182000000
7f7e7e7f80000000
8180808081000000
82807f8181000000
8082817f81000000
808282817f000000
818281807f000000
8281838281000000
8182848380000000
8081838381000000
8081828380000000
7f807f8081000000
7f81808080000000
807f807f7f000000
7f81827f80000000
7f81818280000000
7f80808180000000
80807f8080000000
8080818182000000
8080818281000000
8080808180000000
7f807e7e7d000000
8080818181000000
8081818080000000
7f80808080000000
8081808282000000
8081828180000000
8182828181000000
8283858282000000
8081838482000000
8181818380000000
808081807f000000
7e7d7f7e80000000
7e7d7d7d80000000
7f7f7e7e80000000
7f807e7d7e000000
807e7f7f7d000000
7f807f7f80000000
7f81808080000000
7f81827f81000000
8181808280000000
7f81818081000000
8081808081000000
7f80818080000000
8182818181000000
7f80828281000000
7f7f808081000000
7f7f808080000000
7e80818281000000
7f81828180000000
7f80818081000000
7f80808181000000
808181807f000000
7f8082837f000000
7f81828180000000
807f818182000000
7f80808081000000
818081817f000000
8180818180000000
7f80818081000000
7f80818181000000
817f808180000000
7f8082817f000000
818082817f000000
8181818181000000
7f81818281000000
8180818280000000
7f7f7f7f7e000000
7e7c7d7d7e000000
7e7d7e7e7e000000
7e7d7e7e7f000000
807f7f7d80000000
7f7f7f8080000000
807f818180000000
7f8180817f000000
7f8181817f000000
8180808080000000
7f8080807e000000
8082848380000000
8181848481000000
7f80818483000000
7f7f818280000000
8080807f7f000000
7e807f7f7f000000
8080818180000000
7f80818081000000
7f81818080000000
828183827f000000
8283838282000000
8083828382000000
8282818383000000
7f7f808081000000
7e7d7f7f7f000000
7e7e808082000000
7e7f7d7f7f000000
7e7d7f7d7f000000
7e7e7e7e81000000
7f7f808080000000
8281828281000000
8181828080000000
838182807f000000
8182807f7f000000
8081818182000000
8181818081000000
8082838282000000
818281817f000000
8382818280000000
7e7e828182000000
8080818380000000
818082817f000000
7f817f807f000000
7f7e807e7f000000
7d7e808080000000
7f7f7e7f80000000
7d7d7e8081000000
7f7f7f7f80000000
7f807e8081000000
8280818182000000
8181828181000000
8182828080000000
8081808181000000
8281818081000000
7e7d7e7f80000000
7e7d7e7e81000000
7e7e7d7e80000000
7f7e7e7e7f000000
7e7e807f81000000
80807f7f80000000
807f808080000000
807e7e7f80000000
7e7f81807f000000
7f807f7f80000000
7f817f7f80000000
7e81818080000000
807f80817f000000
7f807f8180000000
7f81818080000000
818182807f000000
8182808280000000
8181808180000000
8180828080000000
80807f8180000000
8080808281000000
807f807f80000000
7f7f828180000000
818080817f000000
7f807f7f81000000
7f81828081000000
8081808080000000
7f81818081000000
8081818181000000
7f807f8181000000
7f8080817f000000
807e80807f000000
7f7f818080000000
808181807f000000
7f7f7f807f000000
7d7e7e807f000000
7e807e7f80000000
7c7d7d7f7f000000
7d7e7e7d7f000000
7f7d7f807e000000
817f81807f000000
7f7f818081000000
80817f807f000000
818080807f000000
7f8281807e000000
8081808180000000
8281818182000000
8282828180000000
8182828080000000
8182828181000000
7f7f828181000000
7f81818181000000
8081828180000000
7f80818080000000
8180818180000000
7e7f828083000000
817f808182000000
7f807f807f000000
808080807e000000
818080807f000000
818081807f000000
8181818181000000
8080818181000000
807f7f817f000000
7f81828080000000
8082818280000000
8280818281000000
8280808280000000
817f808080000000
807f7f8181000000
7e7e7f7e7e000000
7f7f7f7f7e000000
807e7e7e7f000000
7d7f7f7f7e000000
807d7f7e7e000000
7f807f8180000000
7f8181827f000000
818181817f000000
7f8080817f000000
818082807f000000
807f828181000000
8181808181000000
8081818281000000
828181807f000000
818181807f000000
807f80817f000000
807f807f80000000
8080807f80000000
7f7f807f81000000
7f7f808081000000
7d7f7f8081000000
7f7d7f8080000000
7e7f7d7e80000000
7d7c7e7e7e000000
7f7e7e7d7f000000
8080808080000000
7f81808080000000
817f818180000000
8281818181000000
8080818081000000
8080808080000000
8081818180000000
7f82818080000000
8080817f7f000000
81807f7f80000000
7c7e7e7e7e000000
7c7c7e7e7f000000
7d7e7d7e7e000000
7d7d7d7f7f000000
7f7e7d7f7f000000
7f807f7f80000000
8080818080000000
807f808080000000
81807f7f80000000
807f7f8080000000
7f81808081000000
8180818182000000
8080808080000000
807e808180000000
7f7f7f7f81000000
8080818080000000
8181818080000000
818080817f000000
818080817f000000
807f7f8081000000
8080818381000000
8381838282000000
8182818180000000
8180818180000000
8180818181000000
7d7e7e8080000000
7d7e7f7e80000000
7e7f7f7d7f000000
7d7e7f7d7e000000
7e807e7f7e000000
81807f7d7d000000
7f7f7c7c7d000000
7e7f7e7d7d000000
7f807f7e7e000000
8181808281000000
7f7f7e807f000000
807f80807f000000
7f7f7f8081000000
7f81808181000000
8181808082000000
7f7f7e7d7f000000
7d7d7d7d7d000000
7d7e7c7d7d000000
7d7d7e7f7f000000
7e7f7e8081000000
7f7e7f7e81000000
807e7e7e7e000000
81807f7e7e000000
7e7f80807e000000
80817f8080000000
817f7f8080000000
7f7f7f7f80000000
7e7f7f8080000000
7f807f807f000000
817f7f8281000000
80817f807f000000
807f7e7e7e000000
817f807f7d000000
807f807f7f000000
818080807e000000
807f818081000000
7f817f8081000000
818080817f000000
807f81817f000000
8081827f7f000000
7f81808080000000
80807f807f000000
7f80817f81000000
817f808180000000
817f7f807f000000
7f81808082000000
807f7f7f80000000
8180808080000000
817f828081000000
8081818281000000
7f817f7f81000000
817f808180000000
818081807f000000
7f81817f7f000000
8181808180000000
807f7f8080000000
8081818080000000
7f81817f81000000
8180828180000000
7f80818080000000
8081807f80000000
7f80817f7f000000
7f8080807f000000
80817f8180000000
7f7f808180000000
7e7d7d7d80000000
7d7c7d7e7e000000
7e7d7e7c7d000000
7f7d7e7d7e000000
807f7f7f80000000
807f7e7e7e000000
7d7e7d7f7e000000
7e7e7e7e7f000000
7e7d7c7d7f000000
7f7d7e7e7e000000
8080807f7f000000
807f7f7f7f000000
7f7e818180000000
817f818082000000
8080828082000000
8081818080000000
8180817f80000000
807f818181000000
8181808281000000
8082818182000000
7f7d7d7d7d000000
7d7d7d7c7d000000
7e7c7e7b7e000000
7c7f7d7d80000000
7f80818281000000
807f807f80000000
7f80807f80000000
7f7f817f80000000
8180807f80000000
8081818082000000
807f807e7f000000
807f7f7f7f000000
807e7d7f80000000
81807f7f7f000000
827f818180000000
7f80808080000000
81817f8080000000
818281807f000000
8182818080000000
8081817f80000000
8080818080000000
807f7f8180000000
8081818081000000
8080818180000000
8180818282000000
8080808180000000
817f817f80000000
7f8081807f000000
8080818080000000
8181818182000000
81807f7f7f000000
807f808081000000
80807f7f7f000000
817f80807f000000
817f818081000000
807e7d7e7f000000
807f7d7f7f000000
7e7d7d7d7e000000
81807f807e000000
807f808080000000
7f7f808080000000
807f818181000000
8181808081000000
8080808180000000
817f818181000000
8180808080000000
807f7f817f000000
817f808081000000
818181817f000000
8080818082000000
7f7f7f7f7f000000
7f817e7e7f000000
7f807e7e7e000000
81807f7e7f000000
7f80817f7f000000
7f80818080000000
7f80808081000000
8080818180000000
818181817f000000
8181828181000000
7f7f7e7f80000000
7d7c7e7f7e000000
7e7e7d7f7e000000
7f7e7d7d7f000000
7e807f8181000000
7f7f818080000000
8180817f81000000
8181817f81000000
8082808181000000
8180828080000000
7e7f818080000000
7e7e7f7f81000000
7e7e7e7f81000000
8181818081000000
8080828280000000
817f807e7e000000
7f7f807f7f000000
818080807d000000
7f80808080000000
7f7f807f7e000000
808280817f000000
8282817d7d000000
8182807f7e000000
8081807f7e000000
8081817f81000000
807e808080000000
7f7f7f7f80000000
7e807f8080000000
7f7f808081000000
8182828080000000
7f7e80807f000000
7f7f7f7f7d000000
7e807f7e7f000000
80807e8081000000
7e7f7e7e7f000000
8181828180000000
7f8081817e000000
8081817f7e000000
808180807f000000
807d7e7e7f000000
7f80807f81000000
807f7f817f000000
7f80808180000000
807e807f7f000000
817f808081000000
8281808080000000
818082817e000000
8080818180000000
818080807e000000
7e807e7f7e000000
7f7f817f80000000
8081807f81000000
7f8081807e000000
80807f817f000000
7e7f817e7f000000
817f7f7e7f000000
8081807f81000000
7f81817f81000000
7f81808180000000
8181818180000000
8181817f7f000000
807f7f8080000000
7f8080807f000000
7f7f818180000000
80817f7f7f000000
80817f807f000000
807f808081000000
8180808081000000
807f82807f000000
8081808180000000
818081807f000000
7f80818181000000
7f81818180000000
80807f7f80000000
8081817f7f000000
8081817f7f000000
7f7f80807e000000
7f81818080000000
7f8082807f000000
8180818180000000
7f7f81807e000000
8181818180000000
8180827f7e000000
8180817f80000000
7f7e7f807f000000
7f7f7f7e7e000000
807d7e7d7f000000
7e7d7e7d7e000000
7d7e7f7e80000000
7e81818081000000
808080817f000000
807f818180000000
808081807f000000
817f7f8180000000
8080808080000000
8180808080000000
80807f8181000000
8180808180000000
8081827f80000000
7f80807f81000000
807e807f80000000
807e7d7e7e000000
807e7f7e7e000000
7f7f7f7e80000000
7f7d7e7f80000000
7f7f7f817f000000
7f80818181000000
7f81818181000000
7f7f82807f000000
807f808080000000
7e7f807f80000000
807e80807f000000
7f7f7f8180000000
807f807e80000000
817e7f7e80000000
8283817f81000000
8383828080000000
838381807e000000
8283807f7f000000
8181807f80000000
817f817f7f000000
7f807f7f81000000
8080807f81000000
7f7f82807f000000
81817f8180000000
7f7f7f817f000000
808181807f000000
8181808080000000
8181817f80000000
807f7f8181000000
817f807f7f000000
81807f8080000000
8281818181000000
808080817f000000
7f7f807f7f000000
808080827f000000
808181807f000000
817f818180000000
8180807f80000000
7f817f807f000000
7f80817f81000000
7f7f808080000000
818180817f000000
817f828180000000
817f818081000000
7f81818080000000
80807f7f7f000000
7f80818181000000
8081818080000000
8080808180000000
818080807e000000
8080807f80000000
8081817f80000000
8181807f7d000000
7e807e7e7e000000
8180808181000000
80817f7f81000000
8180818180000000
7f81818180000000
8181808080000000
807f818081000000
808181807f000000
817f818080000000
7e7e808080000000
807e7f7e80000000
7f8181817f000000
817f818180000000
7f80808080000000
7f82818180000000
8181818180000000
807f808281000000
8081827f80000000
8081828181000000
808080817f000000
7f7e7f8081000000
7e7e807e7d000000
7e80818080000000
7e80818280000000
7f81838282000000
8082828382000000
7f7f808386000000
7f7d818487000000
807f818386000000
817f838585000000
807f808281000000
8182828180000000
8081828281000000
828383827f000000
838381817f000000
8280817e7f000000
7f7f808282000000
8081828482000000
8080818383000000
8081828484000000
8080828381000000
807e7f807f000000
7f807f7f7f000000
7e817f7f80000000
7f80808280000000
7e80818282000000
8081827f80000000
8082818080000000
808383827f000000
8182838181000000
8283838280000000
7f7f81817f000000
7f7f808081000000
7d7f7f7e81000000
7e7e7f8181000000
7d7e7e8180000000
807f80817f000000
817e7f7f7f000000
8080807f81000000
807e7e807f000000
7e7f7e7f81000000
8180817f81000000
8081818181000000
7f807f807f000000
81817f7e80000000
807f807e7f000000
8180808180000000
808080807f000000
8180817e80000000
8180818080000000
817f807f80000000
807f818081000000
80817f8080000000
7f81808080000000
7f807f807f000000
8081807f80000000
808080807f000000
81827f8080000000
817f818181000000
8181807f7f000000
807f7f8181000000
7f8080817f000000
7f7f818180000000
81807f7f7f000000
817f81807e000000
8080817f81000000
7e7f807f7d000000
7f8180817f000000
7e81818282000000
8180838282000000
7e80838283000000
807f818183000000
8083828483000000
8182838383000000
8181838282000000
828181817f000000
8182828280000000
8283838281000000
8283818080000000
838280817e000000
8281817f7f000000
8082818081000000
817f808080000000
8081807f7f000000
80817e7e7f000000
8180807f80000000
7c7f828485000000
7f81838386000000
8181848585000000
8182848585000000
8180818382000000
8081808282000000
808180817f000000
818081817f000000
8080808081000000
7f80817f80000000
8281817f7f000000
828181807f000000
8282828280000000
8181838381000000
8281818280000000
807f7e8182000000
7f7b7e7e81000000
7d7b7d8081000000
7d7b7c8080000000
7c7b7d8182000000
80807f807f000000
8180818180000000
8180818080000000
81807f7f81000000
80807f7f80000000
7f8181807f000000
8180818081000000
7f8180817f000000
80817f8080000000
8182807f81000000
7f8080807f000000
8182817f7f000000
7f8180807f000000
7f81808080000000
7f80818081000000
80817f7f80000000
8082818080000000
8080828281000000
7e81818382000000
7f7f838482000000
818080817f000000
7f807f8080000000
81807f8080000000
81807f7f7f000000
817f807f80000000
817f817f7f000000
808280807f000000
818181817f000000
8181818280000000
8082808080000000
7e7f808082000000
7d7c7d8081000000
7c7d7d7f83000000
7c7e7d7f82000000
7d7e7d8181000000
8080818081000000
7f817f7f80000000
817f7f8180000000
817f7f7f7f000000
808080817f000000
7e8180807d000000
7f8183827f000000
8084848481000000
8282858583000000
8283838382000000
8182808181000000
8181807f7f000000
81817f807e000000
80807f8080000000
807f7e7f7f000000
828180817f000000
8282827f7e000000
818381827f000000
8181828180000000
818282817f000000
828380827f000000
7f8382817e000000
7e80838180000000
7e7f828482000000
807f818181000000
7c7e7e8282000000
7f7d808281000000
7e7d7e8080000000
7f7f808080000000
7f7f7f7e7e000000
828281817f000000
817f807f7e000000
80817f7e80000000
80807f807e000000
818180817f000000
8281828282000000
8182818180000000
807f828381000000
8080818182000000
7f7f808081000000
817f7f7e80000000
7f7f827f80000000
7f7f818281000000
8081818281000000
8181818182000000
8182818180000000
8283818181000000
8182828180000000
7f81828181000000
7f81818081000000
80807d7e80000000
807f807e7f000000
7f807f8081000000
7e7f818280000000
807f818281000000
80807e807f000000
8181808080000000
7f807f807f000000
8080808280000000
817f828081000000
817f7f7f81000000
80817e8080000000
7e7f807f7f000000
7e7f7f8181000000
80817f8082000000
807f7f7f7f000000
80807f807f000000
80817f7f7f000000
8082818180000000
8180808180000000
7f7f807f81000000
80817f7e80000000
7f817f8080000000
7f7f7f817f000000
808181817f000000
817f7f7f80000000
7f81808080000000
818281807f000000
8081818182000000
7f80818180000000
81817f8081000000
80807e8080000000
7f7f7f7f7f000000
7f80818281000000
7f81828082000000
8181818080000000
8181818280000000
7e81828381000000
8081828483000000
7f7f818281000000
8181808180000000
828081807f000000
808080817f000000
80807e7e7e000000
7f7f7e807f000000
8083808080000000
8281808180000000
8181828281000000
817f818081000000
8081808281000000
817f807f81000000
8080807f7e000000
808180817f000000
7f7f828280000000
7f81808180000000
8081808281000000
7f81828081000000
7e7f808182000000
8080818081000000
7e7d7f7e7e000000
807f7f7f80000000
80807f7f7f000000
8080817f7f000000
8181808180000000
8081818282000000
8183808281000000
8381838281000000
8181838282000000
8080828282000000
8080808181000000
7d7b7e8081000000
7c7c7c7e81000000
7c7b7c7d7e000000
7d7e7f7e7e000000
7e7e7f7f7e000000
8080817f7e000000
7f7f808180000000
8081807f7f000000
8080808080000000
807f828181000000
80807f8081000000
8282817f80000000
8080828081000000
8082818282000000
8180818180000000
8281807e7f000000
818081817f000000
8080828180000000
7f7f828282000000
8180808282000000
8182807f81000000
8182828280000000
7e80828380000000
7e7f828183000000
7d7e818181000000
8081807f7f000000
81807f807f000000
7f7f7f7f81000000
817f818081000000
818181827f000000
81807f7f7e000000
8180817f80000000
7f7f808080000000
817f808182000000
807f818181000000
7e7e7f8081000000
7f7d7f7f81000000
7e7e807f81000000
7e7f808182000000
7f80808080000000
81807e807e000000
7f7f7f7f7f000000
7f80807f7e000000
807f807f80000000
807f828281000000
8280827f7e000000
8183828280000000
7f81828281000000
8081838383000000
807f7f8182000000
808181817e000000
81807f807e000000
80807f807f000000
818081817f000000
7f7f808081000000
8180808180000000
808283807f000000
8181838181000000
8080818382000000
7f7f818080000000
818081817e000000
7e81818380000000
7e80848381000000
7e7f818382000000
7e7e7f7e80000000
7f7e7f7f80000000
7f7d7e7d7f000000
7e7c7b7c7e000000
7e7d7d7a7d000000
7f7d7c7b7e000000
8182818182000000
817f7e807f000000
7f7e7d7d7e000000
7d7e7f7f7d000000
7d7e817f7f000000
8180807e7f000000
7f7f7f8281000000
7e7e808080000000
7d7d7e7f80000000
7f7c7d7d7f000000
807f807f7e000000
808180807f000000
8080838282000000
7f7f818283000000
7f7f7f8182000000
8181807f80000000
8282818280000000
8180808081000000
7f807f8180000000
7f7d7f807e000000
8080808081000000
7f8080807f000000
7f80818182000000
7f7f818381000000
8081808181000000
7f7e7f7e80000000
8080807f80000000
7f7f808181000000
8181818182000000
7f7f818180000000
8080808081000000
807f81817f000000
808080817f000000
808181817f000000
8181818282000000
80807f807f000000
80817f7f7e000000
808080807f000000
8181818081000000
8180808181000000
7f807e807f000000
7f7f7f8180000000
8181818180000000
7f80818181000000
7f80828180000000
818081807f000000
81817f807f000000
7f81808181000000
8180818280000000
7f7f817f81000000
80807f8080000000
8080808080000000
7f8081807f000000
807f808081000000
8181818281000000
8080808080000000
8082838380000000
7d80818482000000
7d7f7f8283000000
7e7d7e7e80000000
8283828282000000
817e7f8081000000
7c7c7b7c7c000000
7c7b7c7b7c000000
7d7d7e7d80000000
8181808081000000
82817f7e7e000000
81807e807f000000
7e7e7e807f000000
7f7d7f7f7e000000
807f7f8080000000
8181807f80000000
7f81807f80000000
81807f8081000000
817f818181000000
7f7e7f7f80000000
7e80817f81000000
7f7d7e7f7f000000
7c7b7d7d7e000000
7d7e7c7c7d000000
81817f8080000000
8081807f80000000
817f7f807e000000
7f7f807f7f000000
7f81808081000000
8281827f7f000000
818181807f000000
7f7f818180000000
7f7e7f8080000000
7f7f7f7f80000000
7d7d7d7f80000000
7d7c7e7e7f000000
7f7e7d7e80000000
7f80817f7f000000
7f81817f7f000000
8080808080000000
8081808081000000
807f7f7f80000000
817f828181000000
8080818181000000
817f818081000000
8181807f81000000
8181817f80000000
7f8180827f000000
8080808180000000
818181807f000000
8081808081000000
8180808280000000
7e80808180000000
7f7f818082000000
7f7f81817f000000
8081838282000000
7d81818383000000
7d7d7f8283000000
7e7f7e7f81000000
8181807e7f000000
80807f7f81000000
80817f7f80000000
7f80808280000000
8080818081000000
8281817f81000000
807f807e7f000000
80807f7f7e000000
7f80818080000000
7f7e7f8280000000
7d7f7d7e80000000
7e7e807f81000000
7e7e818180000000
8081808181000000
8181808180000000
8180807f7f000000
7f80808080000000
817f80807f000000
818180807f000000
8181828181000000
838382817f000000
8082828282000000
7f80818380000000
7e7e7f7f7f000000
7f7d7f807e000000
7f817f7f80000000
80807f8181000000
817f818080000000
808080807f000000
8180808180000000
818281807e000000
8080817f7f000000
7f80818081000000
7e7d7f8182000000
7e7d807f80000000
7d7d7e7e80000000
7e7c7b7e80000000
80807e7f80000000
8182818382000000
8180818381000000
7f81808381000000
7e81818382000000
7f80828283000000
7f81818183000000
7f80808181000000
80807f7f7d000000
8281807f7e000000
8181818180000000
8082828182000000
8181828282000000
7f7e7e7e7e000000
807f7f7e7d000000
8181817f80000000
8182828381000000
8082818180000000
7d7e808282000000
7c7d7d8181000000
7e7d7d8080000000
8180818180000000
80817e807f000000
7e7e7d7e80000000
807f7c7e7f000000
81807f7e7e000000
818082817f000000
8180807f81000000
7e80818283000000
7f7d7f8283000000
7e7f808081000000
807e807f80000000
807e80807f000000
8180828281000000
7f80828281000000
7f7f818082000000
7e7e7f8280000000
7f807f8181000000
7e80818081000000
7e7f828182000000
7f7f808082000000
807f818182000000
7f7f807f81000000
807f81807f000000
7f81828181000000
7e7f808080000000
7f80808080000000
817f7f8081000000
807f818280000000
7e7f808281000000
7f7f808181000000
7e80808180000000
7f7e7e8080000000
7f80818281000000
7e81808280000000
7f7f818280000000
817f818081000000
808181807f000000
7e7f818081000000
7e7e818182000000
7e807e8281000000
7e7e7e8181000000
80817f8081000000
7d7b7c7d7f000000
817d7c7c80000000
81817f8180000000
8383828182000000
8080818282000000
807e7e7d7b000000
8080807f7e000000
8182828381000000
8483848481000000
8084848385000000
7e7e808080000000
7f7e808081000000
8181818080000000
8181807f81000000
80807f8181000000
7f817f8280000000
7f80818081000000
7e7f808180000000
81807f8080000000
7f817e8181000000
7f7e7e7e7f000000
807e7f7e7f000000
8082818082000000
8081838180000000
7f80808181000000
7e8180807f000000
7f7f7f8080000000
7f80818280000000
8180808081000000
8081808081000000
7f7d7e7e7f000000
7f7e7d7d7f000000
80817f7e7e000000
818281817f000000
82807f7f7f000000
8082838282000000
8181828382000000
7e81838281000000
7e7f828182000000
7e7d7f8182000000
7f80818080000000
7f80828181000000
7e807f8080000000
7f7f7f8080000000
807f7e7f81000000
807e818080000000
7f7e7f8082000000
8080808081000000
7f7f808081000000
8181808180000000
7e7f818282000000
7f7f7f8180000000
7f807f7f80000000
80807f7f82000000
807e808081000000
807d7d7e80000000
817d7c7e7e000000
80807f807f000000
8282808180000000
7f81807f80000000
7f81808181000000
807f818181000000
7f7f7f8081000000
807f7f8180000000
7f807e7f80000000
7e7e807f80000000
7f7e808180000000
7f7e7f8081000000
7f7e7f7f81000000
80817f7f80000000
807f808181000000
7f7f818081000000
7d7e808081000000
7e7f808080000000
7e7e808081000000
8080828181000000
7f81818281000000
7e7f818282000000
8080808181000000
80807f7f7f000000
807c7b7b7f000000
807d7c7b7e000000
8282807f7f000000
8182828081000000
8081808181000000
7f80818281000000
7f81808282000000
8080808282000000
807f7f8181000000
8080808081000000
7e7e7e7e7f000000
817e7e7e80000000
80817f807e000000
808181807f000000
7f807f8180000000
7f7f7f8082000000
7f7f808080000000
80807d7d7d000000
828282817f000000
8382828281000000
8083828482000000
8083848485000000
8181838685000000
8185848785000000
8284858484000000
8181818080000000
8183838281000000
8282838283000000
8282828181000000
7f80828180000000
8080818181000000
808180817f000000
818180817f000000
8483848483000000
8383858483000000
7f7f818182000000
7f7f7f8080000000
807e7e7e7f000000
7f807f7f80000000
7f80817f80000000
7e7f7f807f000000
7d7e7f7e80000000
807f7e7e7f000000
8180808180000000
8181808082000000
8182838382000000
807f7f8080000000
7f7e7f7f80000000
7f7f7f7f80000000
7e7f807f7e000000
8181828080000000
808080817f000000
7e7f7f7f81000000
7f7f807f80000000
7f7f7f8080000000
7f7f818180000000
7f82828182000000
807f80807f000000
7f7e807e80000000
80807f8180000000
7f8080817f000000
8180828081000000
807f808181000000
807f7f8181000000
807f818080000000
8081828181000000
8080818081000000
807f7f7f81000000
7e7f7f807f000000
7f807f7f80000000
7f80818281000000
7f7f7f8081000000
807f7f807f000000
7e7f80817f000000
8180818180000000
8081808281000000
818080807f000000
7f807e807f000000
8080807e7f000000
7f7f807f80000000
8080818281000000
817e7e807f000000
80807d7d7d000000
8281828181000000
8282818180000000
7e7f7f7f7e000000
8383828280000000
8585858483000000
8485848281000000
8384838482000000
7e8080807f000000
7e7f807f80000000
807f808281000000
81807f7f7f000000
8080817f7f000000
8181828180000000
818080817f000000
807e80817f000000
7f80808081000000
7f80808180000000
807f818382000000
8080818281000000
8282848483000000
8284858685000000
8285858383000000
7f80818181000000
8180808181000000
8180808181000000
7f817f8080000000
7f80818181000000
7d7e807f7f000000
7d7d7e7e7e000000
80807d7f7e000000
82827f8181000000
8281817f80000000
838281827f000000
8282838280000000
7f8181827f000000
8080808181000000
7f80808281000000
8081818080000000
7f81828181000000
7f7f808180000000
7e80808180000000
7f7f7f807f000000
7f7f818080000000
807f818081000000
7e7f7f8181000000
7e7f7f7f80000000
807f7f7f7f000000
7f80828082000000
8080817f81000000
807f7f807f000000
807e7f7e7f000000
818181807f000000
807f818180000000
7f7f807e7f000000
80807f7c7d000000
828182807f000000
8281808081000000
8181818081000000
7f7f818180000000
7f807f8080000000
7f7f7f7f7f000000
80807e7f7f000000
7e80828180000000
8080828082000000
807f817f81000000
817f7f7f7f000000
7f80807f81000000
8282818281000000
81817e807f000000
807e7f7f7e000000
807e7f7f7e000000
817f807e7f000000
8181808181000000
8080818181000000
7f7e7f8080000000
7f7e7f7f81000000
7f7e7f8081000000
7e7f818080000000
7f7e7e7f80000000
80807f8080000000
8183818281000000
8282828080000000
8182817f80000000
8180818180000000
808080807f000000
7e807e8080000000
7f7e807f80000000
7e7f7f8081000000
7f7e7f7f80000000
817e7f7f80000000
8080818081000000
8280818080000000
7f81828181000000
8081828381000000
7f81818282000000
7e7f808182000000
807e7f8281000000
817f7f7f81000000
827f818081000000
817f807f80000000
827f7e7d7f000000
83817f7e7f000000
7f7f808183000000
7f7f808281000000
8182808181000000
818080807f000000
80807f7f80000000
7e7f818180000000
7e80818280000000
7e7f808180000000
7f7d7d8180000000
7f7f7e8080000000
8080808280000000
8080808080000000
7f7f818280000000
7d7f808080000000
7f807f8281000000
7f8182807f000000
8080818081000000
7e80808180000000
7f7e817f81000000
817f7f807f000000
807f818181000000
807f818080000000
7f80817f80000000
7f80808080000000
8080808081000000
8081807f80000000
818081807f000000
7f80807f7e000000
807f7f7e7e000000
807f7f8080000000
7f817f807f000000
7f807f8081000000
7f8282807f000000
817f81807f000000
7f81818080000000
7f807f817f000000
80817f8080000000
7f82828080000000
808181817f000000
80817f7f7f000000
7f81808080000000
807f81807f000000
8182807f7f000000
8180817f7f000000
808080817f000000
8081818081000000
7f817f8081000000
817f828080000000
7f807f807e000000
7f817f8180000000
7e81808180000000
7f8181817f000000
8180818081000000
8080818080000000
8180808181000000
8080808082000000
7f81828283000000
7d7e808182000000
7d7e7e7f80000000
7f7d7e8181000000
7e7e808081000000
7c7e818183000000
7f81828382000000
8083848281000000
8181818180000000
7f7f808180000000
7e81818080000000
7e8181817f000000
7f81818180000000
7f81807f80000000
7f807f8080000000
8081807f7f000000
808182817f000000
817f808080000000
817f817f7f000000
7e81808281000000
7f7e818283000000
7d7f7f8181000000
7f80818183000000
8282808181000000
7f7f808082000000
808181807f000000
8182808081000000
8080818080000000
818081817e000000
818181827f000000
8180828181000000
7f7f7f8081000000
7f7f7f7f81000000
807e7e8181000000
817f7f7e81000000
817e7d7d7d000000
817f7e7d7d000000
7f7d7f7e7f000000
807f7e7e7f000000
7e80817f80000000
817f808180000000
8080828081000000
7f807f807f000000
7f7f81807f000000
8081817f81000000
8081817f7f000000
8181818181000000
808180817f000000
808181807f000000
8081808180000000
8082808080000000
8080828081000000
80817f8080000000
7f7f807f81000000
807f828280000000
7f80808282000000
7d80818281000000
7b7d808081000000
7f7e7f8182000000
7f7f808080000000
8081828180000000
8081828080000000
8181808080000000
8080807f80000000
7f80818180000000
7e80818182000000
8081828180000000
8180808080000000
8080808180000000
7f7f7e7f81000000
7e7f80807f000000
7f7e7f8080000000
7d7e7f7f81000000
7f807f8182000000
817f80807f000000
808180807e000000
808180807f000000
80817f8080000000
8081808080000000
8180808182000000
7e7f808182000000
7d7f7f8181000000
7c7e818181000000
7f7e818181000000
807f808080000000
7f81817f81000000
817f818080000000
8181817e7e000000
8081807f7e000000
7f8081827f000000
8081818080000000
808180807f000000
7d8080807f000000
7f807e7f81000000
7f8181807d000000
808182817f000000
7f80818383000000
7f7f808081000000
7c7e7e7f81000000
7d7e7e8180000000
7f80808181000000
817f807e7f000000
7f7f7f7e7d000000
7f7f7d7b7b000000
807f7f7f80000000
80817f7f80000000
817f808080000000
82807f7f7f000000
8180818080000000
7e80828380000000
8182828483000000
8081808282000000
807f808080000000
7f7f7c7e7e000000
8182807e7d000000
808083807f000000
7f80828381000000
807f818081000000
7f7f7f7f80000000
8282838281000000
8183828382000000
7f82828382000000
8080818081000000
7f7f7f817f000000
7f81807f7d000000
8081817f7e000000
7f7f828180000000
807f7f817f000000
7f807f7f7e000000
7f817e7e7d000000
7f81817f7f000000
818081817e000000
817f807f7f000000
80807f8080000000
7f7f7f8080000000
807f817e80000000
808080807f000000
8080828180000000
7f80818081000000
817f7f7f7f000000
81817f807e000000
808181807f000000
80807f8081000000
7f8081807f000000
7f7f807f7f000000
80827f817e000000
8180827f7f000000
807f818281000000
7f80808180000000
808180807f000000
808082807e000000
8082808180000000
818082817f000000
807f817f7f000000
80817f7e7e000000
8080817f80000000
808180817f000000
81807f8081000000
817f81807f000000
7f8182817e000000
8082828483000000
8080828282000000
7f7e818082000000
7d7e7d8080000000
8181818183000000
8180818183000000
8180817e81000000
838380807e000000
8283828180000000
8283838182000000
8081818281000000
7f81818180000000
7e80818180000000
7f817f8080000000
81817f7f80000000
8180807e80000000
808080817f000000
8081818180000000
7f7f817f7f000000
7e81808282000000
8182828283000000
8081808181000000
807e7d7f7e000000
807d7f7d7d000000
81807f7f7f000000
8080807f81000000
8180818080000000
807f828180000000
8080808081000000
8183838180000000
8282838481000000
8080818482000000
8081808182000000
7e807f8080000000
7e7c7d7e80000000
7f7d7b7d7e000000
7e7d7c7c7d000000
7f807f7e7c000000
7e81817f7c000000
817f807f7f000000
80807f7f7f000000
828181807f000000
8081828181000000
808181817f000000
808081807e000000
818181807f000000
818181807f000000
807f828181000000
8081808081000000
818180817f000000
8282828081000000
7f82818381000000
807f808280000000
7f7e7f817f000000
8081818280000000
8182838383000000
7e7f818284000000
7d80808081000000
7f7d7f7f80000000
7f807f807f000000
808081807f000000
817f80817f000000
8080818181000000
807f7f7f81000000
8180818080000000
8182807f7f000000
8080828180000000
7f80818282000000
817f807f80000000
7d80807e7f000000
7d7e80817f000000
7e80808181000000
7f7e7f7f7e000000
807f80807e000000
7f7f7f7e80000000
7f81807e80000000
8180807f80000000
7f8180827f000000
807f808081000000
8283828280000000
8182848581000000
8082818283000000
7f7f7f8281000000
807e808080000000
81817f7f7f000000
8280807f80000000
8081817f7f000000
807f82817f000000
807f80807f000000
8083828180000000
8181848383000000
8182818481000000
7f7f7f8082000000
7e7e7e8081000000
818080817f000000
807f7f8180000000
7f807f7f80000000
7f7f7e7f7f000000
7f7f807f7f000000
8484817e7d000000
8383807e7d000000
84837f7e7e000000
8183807e7f000000
8183808181000000
7f7f807f7f000000
7e807e7f7f000000
80817f8080000000
8180807f80000000
818181827f000000
817f808180000000
82807f7f7f000000
80807e7e7e000000
807e7e7e7e000000
80807e7f81000000
7f8182817f000000
8080818080000000
7f81808181000000
8080808181000000
7f7f7e8180000000
80807f8081000000
7f807e7f80000000
807f7d7e7f000000
7e7f7f7d7e000000
81807e7f7f000000
8082818081000000
7f81828280000000
7f81818280000000
8181818281000000
8080808082000000
808181827f000000
8180827f7f000000
8180818281000000
8181808081000000
8180828282000000
807f81807f000000
8180818081000000
817f818280000000
8081828081000000
8080808182000000
7f7f81807f000000
818081807f000000
7f82808081000000
7f80818080000000
80807f8181000000
8081817f81000000
8181818180000000
8081818081000000
817f808081000000
808180807f000000
7f80808081000000
807f817f80000000
8082828081000000
7f80818181000000
7f7f7f7f81000000
8180818181000000
7f80807f80000000
7f80818180000000
8080818080000000
81807f8180000000
8081808081000000
7f807f8080000000
80807f7e7f000000
7f7f7e7f7f000000
807f7f7f80000000
81817e7e7f000000
7f7e7e7f7f000000
7e807f7e7f000000
8180807e7f000000
8081818181000000
7f7f7f7f80000000
7e7f7f7f7f000000
7f7d7f807f000000
7e807f7f80000000
807f7f817f000000
807f817f80000000
8081828281000000
7f7f808180000000
7f7f808081000000
8181818080000000
8281818180000000
8382817f7d000000
807f807f7f000000
817f7f807f000000
8280828180000000
7f8081807f000000
808081807f000000
7f81828081000000
807f817f80000000
817f807f7f000000
80807f8181000000
80807e7e80000000
7f7d7e7e7f000000
7f7f7d7d80000000
807e7e7e7f000000
818280807f000000
8484827f7f000000
8483837f7f000000
828484827f000000
8382838180000000
8180808080000000
7f817f7f81000000
8080808081000000
8081827f80000000
817f808180000000
7f807f8081000000
81817f8180000000
807f7f807f000000
817f818181000000
7f80808080000000
7f80818181000000
7f81828081000000
817f808181000000
8180808180000000
8180818181000000
7f8180817f000000
807e807f80000000
807e7e7e81000000
7f7f7e7d80000000
8081807f80000000
7f81807f80000000
7f80827f80000000
7f80818181000000
8081818180000000
817f818180000000
807f808180000000
817f7f8080000000
807e7f8081000000
7f7f7e8082000000
807e7f7f81000000
8182818080000000
8081818281000000
8282828180000000
8082808280000000
808181807f000000
80817f807f000000
7f80817f81000000
8180818180000000
7f81818181000000
8080808081000000
817f81817f000000
7f7e7f7f7f000000
807e7e7f7e000000
7f7f7f7f7f000000
817e7e807e000000
7f8080807f000000
807f828180000000
817f818181000000
807f81807f000000
8081818080000000
7f80808181000000
7e7f808180000000
7f7e807f7e000000
807e7e7f7f000000
807e807f7f000000
8283838282000000
8183848380000000
8183848481000000
8283848383000000
8081848382000000
7d80818586000000
7d81818485000000
7f7f808283000000
7f80818284000000
7f7f808280000000
828382827f000000
8382818080000000
8081817e7e000000
80807f7d7e000000
80807f7e7e000000
8181838383000000
8283848483000000
8183828483000000
8081838384000000
7f7f818282000000
807f817f80000000
7f7f81807f000000
8181828282000000
8083828182000000
8082818381000000
808181807e000000
8182827f7f000000
808382807f000000
8083818280000000
808080817e000000
7f7f7f8281000000
7e807e8081000000
7f80828180000000
7f81828182000000
7f81818282000000
7f7f808182000000
7f7e7f8081000000
7e7f7f8180000000
817f808182000000
8081828182000000
8281808081000000
818081807f000000
817f7f807f000000
7f81808080000000
7f7f808180000000
8181818080000000
8181807e81000000
8080807f7f000000
81817f7f7f000000
8180808080000000
7f817f7f7f000000
80807f7f7f000000
807f807f81000000
81807f8182000000
7f81818281000000
7f81818080000000
7f7f808080000000
80807f8081000000
8081808281000000
817f808280000000
8080818080000000
80817f7f7f000000
7f7f808080000000
8081818182000000
8081818181000000
8081828180000000
8281828382000000
8083838382000000
7f82828482000000
8081828283000000
8283838482000000
8284848382000000
8182848482000000
80817f7f7e000000
7c7d7c7c7e000000
8081827f7f000000
828181807e000000
8281817f7e000000
7f817f7f7d000000
807e7e7e7f000000
807f817f7f000000
7f7f7f7e7f000000
807f817e80000000
80817f8080000000
8081817f81000000
8081818385000000
8184848483000000
8082838384000000
8182838283000000
808180817f000000
7f7f81807f000000
8080808181000000
807f7f807f000000
7f81808081000000
8180818080000000
80827f8180000000
808182827e000000
8183828281000000
8183838280000000
8081817f7f000000
7d7d7f8081000000
7d7b7f8283000000
7c7e7f7f82000000
7f7f7f8083000000
7d7e808183000000
8180807f7f000000
7f817e7f80000000
807f7f7f7f000000
7f8181817e000000
8081808081000000
7f817f817f000000
807f7f7f80000000
7f8180807f000000
8181808181000000
7f80807f7f000000
8181808180000000
80817f7e80000000
7f8080807f000000
7f82818181000000
8182808082000000
8182818181000000
7f81828280000000
8182838282000000
7e81828482000000
7f7f818282000000
807f7f8081000000
818080807f000000
7f81817f7f000000
807f7f7f80000000
8181818181000000
80807f817f000000
8181817f80000000
807f817f7f000000
8081807f7e000000
7f807f807f000000
7d80808183000000
7e7f7f8183000000
7d7e818282000000
7f7f818284000000
7e81808183000000
81817f8081000000
7f7f80807f000000
807f7f7f7f000000
7f7f818081000000
817f808081000000
8081818080000000
8284838381000000
8084848281000000
8283828180000000
8082828280000000
8081817f80000000
81807e807f000000
807e7e7f7f000000
7f807f8080000000
80807f7f81000000
80807f807e000000
8081807e7f000000
818180807e000000
8180808081000000
7f80808181000000
8183828182000000
7f8080807f000000
8080818281000000
7d7e7e8280000000
7e7f7f8181000000
8384828280000000
8384807c7d000000
8283807d7e000000
80817f7c7e000000
8080818081000000
807f7f7e80000000
807f7f8181000000
818081817e000000
8182827f7f000000
818181817f000000
8182838180000000
80827f807e000000
807f7e7f7e000000
7f7f7d7f7e000000
8080807e81000000
8182818182000000
7f80818380000000
8181808181000000
7e7e818081000000
7e7e7f8181000000
818180807f000000
7f7e807e7f000000
7f7d7f807e000000
807f7d7e7e000000
7f7e7f7f80000000
8182828181000000
8080828180000000
8082838281000000
8080808281000000
7f7e808181000000
808082807f000000
808281807f000000
8180808180000000
818281817f000000
807f7f8080000000
7f817f807f000000
8080828182000000
8081818181000000
818182807f000000
7f81828080000000
7f7f7f7f7f000000
818181817f000000
817f808080000000
808280807f000000
80807f7f80000000
8181818280000000
8082818080000000
8081827f7f000000
808081807f000000
808081817f000000
7f82818080000000
808281807f000000
8081827f7f000000
807f808180000000
808180807f000000
808081807f000000
8081808081000000
7f81828281000000
807f818180000000
807f818181000000
8282838281000000
8080818281000000
807f818280000000
7e7f7e8080000000
807f808081000000
7e7f7f7e7f000000
7e7f7f7f81000000
807f807f7f000000
817f828282000000
8080808182000000
7f8080807e000000
7f7d7f7e7f000000
807e808080000000
7f7f7e817f000000
7f7f80807f000000
8081808080000000
8180828180000000
817f818080000000
7f8180807f000000
7f807f8080000000
8283838280000000
8280818080000000
817f7f8080000000
7e807e7e81000000
807f808080000000
818080817f000000
7f80827f7f000000
818280817e000000
8081808181000000
808181807f000000
8181808180000000
80817f7f7f000000
7f7e7e807e000000
7e7e7e807f000000
7e7e7f807e000000
8183828181000000
8283817f7e000000
8483827f7e000000
818380807f000000
8083828080000000
8181807f81000000
8081818181000000
8181807f7f000000
8081828180000000
7f807f8180000000
7f7f808181000000
8080808280000000
7f80808181000000
7e7f807f81000000
7f80807f80000000
8082818081000000
8180828080000000
807f81807f000000
7e8081817f000000
7f7f817f81000000
8080808181000000
8080808081000000
7f7f7f8081000000
7e7f7f8081000000
807e7f8081000000
807f818280000000
7f81808181000000
8181808080000000
8081808180000000
7f7f808080000000
807f81817f000000
808080807f000000
7e7f808281000000
7f7f808180000000
7f7f7f7f7f000000
8283818181000000
8083838382000000
8083828281000000
8080818080000000
8180808081000000
8080808180000000
808180817f000000
7f80828180000000
8080807f81000000
807f808081000000
8080818080000000
807f817f80000000
7d7f807f7f000000
7e7c7f8080000000
7f7d7f8181000000
8081817f80000000
8180817f81000000
808081807f000000
807f817f7f000000
7f8180807f000000
807f80807f000000
7f807f7f7f000000
7f7e80807f000000
7f7d7f7f7f000000
7e7e7e7f81000000
807d7a797a000000
81807f7c7c000000
838482807e000000
8284848282000000
8282838381000000
7d7f808282000000
7d7e818383000000
7d80818281000000
7f80808283000000
8080808183000000
8180817f7e000000
8081807f7f000000
80807f8081000000
7e807f7f80000000
80817f8080000000
7f7d7d7e7e000000
807f7f7e7e000000
828484827f000000
8182858383000000
8180818382000000
7d7e7d7e80000000
7f7f7e7e7f000000
8380807d7e000000
8181838181000000
8182828182000000
817f7f7e7e000000
82807f7e7d000000
8382807e7e000000
8383838280000000
8180828182000000
7e7e7e7f82000000
7f7e7e8182000000
80807f7e7e000000
828181817f000000
8281808281000000
7e80818080000000
7f7f7f8081000000
807f7e8180000000
807f808180000000
82817f8081000000
8181818080000000
7e7e7e8081000000
7f807e7f80000000
80807f8080000000
8080808081000000
807f808081000000
80807f7f80000000
7f7e7e8081000000
817f7f8080000000
81827f817f000000
807e7f8182000000
7f7f7f8182000000
7f807e8080000000
8082807f80000000
82817f807f000000
7e807f8080000000
807e7e8080000000
817f7f7e81000000
8181808180000000
808081817f000000
7f7e808180000000
80807e8081000000
817e7f7e81000000
81807f7f7f000000
808080807f000000
807f7b7a7c000000
83827f7e7b000000
838383817e000000
8382848481000000
8082838282000000
8282807f7d000000
818181807f000000
8082838281000000
8081818385000000
8080808384000000
8281817e7e000000
81817f7f7d000000
8182807e7f000000
8280818181000000
808181817f000000
7f80808181000000
7f807f8081000000
807f7e7e7f000000
8280817f80000000
80817f7f81000000
7f7d7d807d000000
8180817f7d000000
8183848181000000
8183848282000000
7f81808382000000
8180817f80000000
7f7f7e7f81000000
7f81807f7f000000
8080817f81000000
82817f8080000000
807f7d7b7c000000
82817e7d7d000000
828281807d000000
8284828181000000
8182828182000000
7f81838183000000
7c7f808382000000
7d7c818181000000
7e7d808182000000
7e7d7d8080000000
817f807f80000000
7e7e807f81000000
80807e807f000000
8180808080000000
8080807f7f000000
7f7f807f81000000
7f7e7e7e81000000
80807f7e80000000
8182817e80000000
8081817f80000000
7f807e7e80000000
80807f7f81000000
82807e7f7f000000
8182828081000000
8181828081000000
807f7e7c7c000000
8381807c7d000000
8283847e7d000000
8382858280000000
8180828481000000
80807e8181000000
7f7e7e7f81000000
81807e7f80000000
818280807f000000
81827f8081000000
817f807d7f000000
80817e7e7f000000
8081807c7e000000
8280817e80000000
8182818180000000
7e7f808181000000
7f7f7f8181000000
8080818081000000
808081807f000000
817f818082000000
817f808181000000
7f7f807f81000000
7f7f7e7f81000000
8180808081000000
828280807f000000
81807f7c7d000000
8481807c7d000000
8384827f7d000000
8284848380000000
8182818380000000
7f7f808081000000
80807e8182000000
817e7f7f81000000
82807f8180000000
8282817f81000000
817f7b7b7d000000
81807e7c7d000000
8283807f7e000000
8184828281000000
8081828180000000
7f80818081000000
7e7e808383000000
7f80818385000000
8182818383000000
7d7e807f7f000000
82827f8083000000
807f7f8285000000
8081828683000000
7f83848482000000
7e80818181000000
8081828381000000
8284848282000000
828382817f000000
81807e7d7d000000
7f7d7c7d7c000000
8080818083000000
80807f8385000000
7f7f828485000000
7e80828382000000
7b7d80807f000000
8281808080000000
7f7f7e8080000000
7f7e7e8081000000
807f7f8181000000
8080808281000000
7f8080817f000000
7f80818082000000
8080828281000000
8182828182000000
808180807e000000
8281817f81000000
807e7f7f7f000000
817f7f7f80000000
7f7e7f7f82000000
8081828180000000
8182818181000000
80807e7e7e000000
7f807e7e7e000000
7f7f7f7f81000000
7f7f7f8182000000
8283818180000000
8181807f7f000000
81817f7e7e000000
82807f7e80000000
82807e7f80000000
8281808080000000
808180817f000000
81807e8080000000
807f7e7f80000000
7f7f7f7f81000000
828282817f000000
8281807f7f000000
817f807e7f000000
80807e7e7f000000
807e7f7f80000000
8182828180000000
8180807f80000000
7f7f7e807f000000
817f7f8080000000
7f7f7f807f000000
8082838281000000
8082818080000000
8080807f7e000000
808080807e000000
80807f8081000000
7f7f818080000000
7d7e7f8281000000
7e7f7f8384000000
7e80818082000000
7d7e7e7f7f000000
7e7f828282000000
8284848685000000
8384838382000000
7f817f817e000000
7e7c7b7b7b000000
8080828281000000
8182838280000000
838282807f000000
838380807f000000
81807e7c7d000000
828281807f000000
808180807f000000
81807e807f000000
807f7e7e80000000
817f7e8081000000
8281828384000000
807f818488000000
7f82848685000000
7f82828381000000
7d7e807f7e000000
808282817f000000
818180807e000000
817f807f7e000000
817f7f7e7e000000
8280807e7f000000
8080808182000000
807f808080000000
7f80808182000000
7f82818280000000
80817f7e7e000000
7f807d7d80000000
7e7e7d7e81000000
7d7c7c8080000000
7d7c7f8180000000
7e81808282000000
8280828081000000
828182817f000000
817f7f807e000000
80817e7e7f000000
8080807f81000000
8180808280000000
8280818180000000
81817f807e000000
81817f7f7f000000
7f7f7e7f80000000
8082828180000000
807f818080000000
7f80808080000000
82807f8080000000
8080808081000000
8080808280000000
7e7f7e8081000000
7e7f7f8083000000
7e81808180000000
7f7e80807f000000
8281828181000000
828081807f000000
807f7f807f000000
81807e7e7f000000
807e808080000000
8182818282000000
8081838381000000
8280817f81000000
818280807f000000
8280807e80000000
80817f7f81000000
807f7d7e7f000000
7f7c7c7e80000000
7d7e7e8081000000
7f80818280000000
8282818081000000
8280817f7e000000
8080807f80000000
817f7f7f7f000000
807f7f8080000000
7f7f818283000000
8080818585000000
8283838485000000
8081818282000000
7f817f7f7e000000
808181807f000000
828182807e000000
82817f7f7e000000
82817f7f7e000000
81807f7e80000000
8080818282000000
817f818180000000
827f807f81000000
80807f7f80000000
807e7e807e000000
7d7e7e7f80000000
7c7c7e8383000000
7c7b7d8182000000
7d7b7a7d80000000
7f7f7e7e7e000000
817f7b7a7c000000
7d7d7c7b7c000000
7f7e7e7c7d000000
7e7e7f807f000000
8180838383000000
817f7e8080000000
7e807e7e80000000
7f807f7f80000000
8181808281000000
8081828181000000
7f7d7d7d7e000000
7c7b7c7f7f000000
7d7c7b7d82000000
7f7c7d7c80000000
8281818181000000
8081818181000000
7f7f808081000000
7e7c7f8182000000
7f7c7d7d80000000
817e7f7f7f000000
817e808082000000
7f7e7f8083000000
7f7f7e8083000000
7f7d7c7f81000000
81807f7f81000000
7e80807f80000000
808080817f000000
7f7f7f8080000000
7f7f7e8080000000
7f7f7e7e81000000
7f81817f80000000
807f82817f000000
817f828081000000
7f80808182000000
7f80808081000000
817f808180000000
807f80807f000000
81807f8180000000
7f7f808180000000
817f7f8081000000
7f81817f80000000
818181807f000000
807f818180000000
80817f8081000000
8081818282000000
80807f7f80000000
7f8081807f000000
8081808280000000
7f80807f81000000
8081818082000000
7f817f7f80000000
7f817f8282000000
7f7f818081000000
7f7e808081000000
7f807f8180000000
817f817f81000000
807f818180000000
817f808080000000
807f7f8182000000
7f7f7f7f82000000
7d7e7f8180000000
7b7b7c8283000000
7e7a7c7f82000000
7d7a7b7d80000000
81807d7d80000000
807f7f7e7e000000
7f7e7d7f7f000000
7e7d7d7f80000000
7f80818082000000
8282838483000000
8080807f81000000
80807f8180000000
7f7f7f8080000000
7f807f8082000000
807f808081000000
817f80817f000000
8081818280000000
8080818081000000
7f80828282000000
807f808182000000
7d7b797b7d000000
7d7a7a7b7e000000
7c7c7b7d7f000000
7e7c7c7e80000000
8282838283000000
7f807f8081000000
8181818080000000
807f818280000000
8080818280000000
7f7f7f7f82000000
7f807e8280000000
7e7d7e8082000000
7d7d7e8082000000
7e7c7e7f81000000
81817f7f81000000
82807e7d7e000000
8280807e7e000000
8382818180000000
8282828280000000
8082838281000000
7f817f7f80000000
8181817f80000000
8081808282000000
7e81818080000000
7f80818082000000
8180808080000000
7f80818182000000
7f80808082000000
8080808081000000
7f81808181000000
7f80818080000000
7f7f818181000000
7f7f7f8283000000
7f7e7e7e80000000
817f808082000000
7e7e808081000000
7e7c7e8081000000
7e7d7c7e82000000
7e7b7a7c7f000000
807f7d7d7f000000
807f808181000000
7f80818080000000
8080808182000000
807e808280000000
7f7f818080000000
8081808081000000
7f80818181000000
7f80818081000000
7f7f7e8181000000
7f80808081000000
807f807e7f000000
80807f807f000000
81807e817e000000
7f817e807f000000
8281808080000000
8081818080000000
7f80828181000000
8081808282000000
7e7f7f8181000000
807f818281000000
7e80808181000000
7e7d7d8283000000
7d7b7b7f81000000
7f7b7c7f81000000
827f808181000000
8080807f80000000
7f81817f81000000
8080818281000000
7f81808281000000
8080808082000000
8180808181000000
7e7e808082000000
7f7d7f8182000000
7f7e7d8082000000
81807f7f82000000
817f7e7d7f000000
8282807d7d000000
818282827e000000
8282848583000000
7f81838381000000
7d7c80817e000000
7b7d7f7f80000000
7d7e828380000000
8080818381000000
7e7f807d80000000
7e7f7d7e80000000
7f7d7e7d7f000000
807f7d7f81000000
827f808080000000
7f807f8080000000
7f80807e7e000000
7e7f80807d000000
8081838482000000
7f81848585000000
807f828182000000
8182807d7e000000
81817f7f7f000000
838180817e000000
8183818280000000
7f81828180000000
81827e7f80000000
8181827f7f000000
8181828181000000
8083818382000000
807f828283000000
8181807e81000000
82827f7f7e000000
8282817f80000000
818182817f000000
818080817f000000
81807e807f000000
817f7f7f80000000
8180807f80000000
81817f817f000000
828282817f000000
81817f7f80000000
8281807e80000000
807f80817f000000
82817f807f000000
80827f8181000000
807e7e7e7f000000
80807f8080000000
807f7f8080000000
7f7f807f81000000
7f807f817f000000
81817e7f7f000000
80817f7e80000000
8181807f7f000000
8181807f80000000
7f8180807f000000
807f7f7f7e000000
807f7e8080000000
81817f807f000000
808181817f000000
7f81818081000000
81807e7f80000000
81807f7f7f000000
82817f7f7e000000
80817f817f000000
807f828181000000
83827f7e7c000000
828381807f000000
8184838480000000
8083848484000000
8080818382000000
7d7d7e807e000000
7d7d7d7f80000000
7f7d7f8182000000
8183818282000000
80807f807f000000
8082807f7f000000
8282808081000000
8181808082000000
7f82808282000000
7f817f8281000000
807f7e807e000000
8281807f80000000
8081807f81000000
8080818180000000
817f808181000000
7e7f80807f000000
7f7f81807f000000
7e80828384000000
8082858585000000
7e7e7e807f000000
7f7f7f807e000000
80807e7f80000000
827f7f7f7f000000
8182817f80000000
8181808180000000
8180807f80000000
808082807f000000
8183848482000000
8081828381000000
7f82818383000000
7f7f808181000000
7f7e807f81000000
817f807e7f000000
81807f7e7e000000
8382807f7c000000
80807f7f7f000000
7f7f7f807f000000
81807f807f000000
807f80817f000000
8181808080000000
807f7e807e000000
81807f8080000000
8080818080000000
808180817f000000
8081808280000000
81817f7f80000000
8381817f7e000000
8280818181000000
8281818082000000
8080828180000000
8482817d7e000000
828383807e000000
8083858280000000
8082838584000000
8080828482000000
7f7f7f8080000000
8080817f80000000
817f7f8081000000
8281817f80000000
7f80818281000000
81807f807f000000
81817f7f80000000
8180808180000000
8180808081000000
7e82828080000000
8182808180000000
8380807f80000000
8283828080000000
8080828080000000
8180807f7f000000
807f7e7e80000000
8180807f7e000000
82807e8180000000
8282808181000000
818181807f000000
81827e7d7f000000
828280807f000000
8283828382000000
8183848383000000
8081818282000000
807e7f7e80000000
827f7f8080000000
82817f7f80000000
8281818180000000
8081808180000000
80807e7f7f000000
8282807f80000000
8182828280000000
8181818281000000
8081818281000000
7f8181807f000000
8082818080000000
8081818181000000
7e80807f81000000
7e7f7e8180000000
7e7f7c7b7b000000
807e7d7a7c000000
7f7d7f7d80000000
7e7c7d7f83000000
7e7d808186000000
7f7f7f7e7f000000
7d7d7f7d7f000000
7e807e807e000000
808081817f000000
8182828081000000
7e7e7e7d7e000000
807e7e7e7e000000
807f7f8081000000
7e7c7e8183000000
7f7f808283000000
808282817e000000
8281828180000000
8182818081000000
7f80817f7f000000
7e7e7e8080000000
7e7d7d7e7f000000
7d7f7e7e7d000000
807e7d7e7d000000
7d7c7c7d7c000000
7e7e7e7d7d000000
8082828281000000
8181838181000000
8282838280000000
7f80828280000000
7e8080817f000000
8080807f7f000000
8280808281000000
8282838282000000
818081817f000000
818081817f000000
7f7f807f80000000
7f8180817f000000
8180818081000000
7f80828080000000
8081828181000000
7f7f7f8081000000
818080807f000000
817f818080000000
8080807f80000000
81817f7f7f000000
7f80818081000000
7f8281817f000000
8082808180000000
8081828180000000
807f808080000000
817f807f7e000000
8081808180000000
8181808081000000
807f817f7e000000
80807f7f7e000000
8182828080000000
8080818081000000
7f82828180000000
8081808281000000
8181817f80000000
8180817f80000000
818282827f000000
8181818181000000
7f7d7f8180000000
7f7d7e8081000000
807f7e7f7e000000
7e7c7d7c7d000000
7f7c7c7e7f000000
7f81808182000000
8285848583000000
7f7e7f7f7d000000
7f7d7f7d7f000000
7d7d7e7e7e000000
7f7f7f8080000000
8080818181000000
8080817f80000000
7f7f828180000000
8182818081000000
7f81818081000000
808081807e000000
7f7e7b7b7c000000
7f7e7c7b7e000000
7d7e7f7f83000000
7c7c7d8184000000
8180838485000000
817f7f8080000000
8081818080000000
81817f7f81000000
80807f817f000000
818180807f000000
7e7f7e7d7d000000
7e7e807f7f000000
7f7f7f7e7e000000
7d7c7c7e7e000000
7e7e7e7e7e000000
8081808080000000
8082818181000000
8381828081000000
8280808182000000
8282808081000000
8080807f7e000000
7f807f7f81000000
81817f8180000000
8280818081000000
807f807f80000000
7f7f81807e000000
7f7f808180000000
817f7f8081000000
8080817f80000000
8080807f7e000000
8080817f7f000000
7f8181817f000000
828081817f000000
7f817f7f80000000
7e807f7f7f000000
7f7f81807f000000
7f82818080000000
808181827f000000
7d7f7f807e000000
7e807e7e80000000
7f80808180000000
8080807f80000000
8081818080000000
7f81807f7f000000
7f8181807f000000
7e7f7e7f7e000000
7f7f7f8180000000
8081808081000000
8081808180000000
7f7f818080000000
8181828281000000
8383838382000000
8284828382000000
8282838081000000
8181818281000000
8181808081000000
808081817f000000
818281817f000000
8082808081000000
8080817f7e000000
807f807f7e000000
7f7e7f807f000000
7e7f7f7f7f000000
7c7c7d7f7f000000
7e7f7e7f80000000
7f81807f7f000000
8180808181000000
8081808081000000
7f8081807f000000
807f817f80000000
7e7d807e7d000000
7d807f7e80000000
80807e8080000000
7d7f7d7f7e000000
7f7d7e7e80000000
8083828381000000
8182848381000000
8183848684000000
8080808282000000
80807e807e000000
8281828484000000
8382838484000000
8182848483000000
818383817f000000
818181807d000000
8181818080000000
8081827f7f000000
80817f7e7f000000
808080807e000000
7f81817f81000000
8183828281000000
8283838483000000
8382848484000000
828281807e000000
8281807d7b000000
7f80807f7f000000
7f81828180000000
8081838383000000
7f81828183000000
807f7f807f000000
8082818281000000
8183838482000000
8282848382000000
8180818081000000
7f7e7e7e7f000000
7d7e807f80000000
7f7e7f8180000000
7f7e808281000000
7f7f818383000000
8081828281000000
7f7f7e7f7f000000
7e81807f80000000
7e81808181000000
807f808381000000
7f80808280000000
7f80808180000000
7e7e808081000000
7e7e817f80000000
7f7f808182000000
7e7f7f8081000000
807f80817f000000
7f7f7f807f000000
7f7f807f82000000
7f80818180000000
7f8082827f000000
80807f817f000000
7f80818181000000
7e81808280000000
7e80818281000000
8081808180000000
7f81817f81000000
7e807f7f7f000000
7e80808180000000
7f80828280000000
7f80818181000000
7e7e807f7f000000
7f7f7f7f81000000
7e7f808080000000
7f7f808282000000
8181808182000000
8082838181000000
8384848583000000
8281838384000000
7f80828282000000
7e807d7f7f000000
8383838283000000
8283838381000000
8181807f7e000000
807e7f7d7b000000
807e7d7e7e000000
828181817f000000
8081818080000000
7f8182807f000000
808080817f000000
7f7e7f807f000000
7e80807f7f000000
7f7f7f8080000000
8080818181000000
817f818180000000
7f80818081000000
8082828284000000
8283838583000000
8283848382000000
828281807e000000
81807f7e7d000000
7f817f8081000000
7e7f80817f000000
807f7f8181000000
8080808280000000
7f7f818280000000
818282827f000000
8282838282000000
8182838281000000
818081807f000000
7f80807d7f000000
7e80808183000000
807f7f8180000000
7e7e7f8081000000
8080818180000000
7f81828080000000
7f817f7f7f000000
7e807f8081000000
7e81818180000000
7e7f808281000000
807f808082000000
7f8180807f000000
8081818181000000
7f81828181000000
7e81808280000000
7e7f7f827f000000
808181817f000000
7e8082817f000000
7f7f828182000000
7e80808281000000
7e80818082000000
7f82828282000000
8081848482000000
8180828584000000
7f7f808281000000
807e807e7f000000
807f7f7f80000000
80817f8080000000
8080808081000000
807f818180000000
7e7f818181000000
7f8281817f000000
8081817f80000000
8080808180000000
7f7f817f80000000
807e818080000000
7d7e7e7f7f000000
7e7e7f8181000000
807f818080000000
7f80808080000000
81817f807f000000
7e7f7f8081000000
7f7f7f7f81000000
8080808180000000
7e7f818081000000
7f7f828282000000
8281838280000000
8383848482000000
8182848382000000
8180828281000000
81807e7e7f000000
817f7f7f7f000000
7f7f7f8080000000
807f7f817f000000
7f80808080000000
7f7f828281000000
808182817f000000
8283828180000000
8282828382000000
808182807f000000
807f807f7f000000
8080818280000000
8281828182000000
8080808081000000
7f7e7f7f82000000
7e7f7e8081000000
81807f7d7d000000
7f7f7d7c7c000000
7f7e7d7c7d000000
807e7d7d7f000000
7f7f7f8081000000
817f7e8180000000
7e7e7f8080000000
7e7e80807f000000
7e7f7f8081000000
8180827f80000000
807f807f7e000000
7f807f807f000000
7f7d7f7f7e000000
7f7e7f8081000000
7f8080807f000000
8182838081000000
8282828180000000
808280817f000000
818180817f000000
817f808080000000
80817f8181000000
807f80817f000000
7e7f7f7e80000000
7f7f7e7e7e000000
807f7f807f000000
8180828280000000
8181828081000000
8181818180000000
8281808080000000
8080818081000000
8180828081000000
8081818081000000
8182827f80000000
8282808080000000
818081807f000000
807f807f80000000
808080817f000000
7f8280807f000000
8082807f80000000
8181807f80000000
81817f8180000000
7f807f8180000000
817f817f80000000
808180817f000000
8181808180000000
8181818180000000
8080818080000000
8282807f81000000
8181808180000000
8080807f7f000000
7f81808281000000
808081807f000000
81827f8081000000
8081817f81000000
8080808081000000
8181808281000000
8081818281000000
8082808081000000
808082807f000000
818181807f000000
8181828281000000
8081818282000000
7f8080807f000000
7f7e7f8081000000
7f807f807f000000
7f7f807e7f000000
7d7e7d7f7e000000
7c7c7d7f80000000
7e7f818181000000
8081818183000000
7f80808080000000
7f7d807f7f000000
807f7f7f80000000
7f7f807f81000000
7f7e7e7f7f000000
808080817f000000
807f808081000000
8181807f7f000000
817f808180000000
8080817f80000000
8182827f7d000000
817f807e7f000000
7e7f7e7e7f000000
7e7c7f8080000000
7e80818181000000
7f80807f81000000
8081808081000000
807f828180000000
8081817f81000000
818080817f000000
8081808080000000
81817f7f7f000000
7e7e7e7f80000000
7e7e7f7f7f000000
807f7f7e7f000000
8081807e80000000
807f7f7f7d000000
80807e7f7d000000
818081807e000000
818380817f000000
807f7f7f7f000000
8181808080000000
808080807f000000
8181818080000000
8181808181000000
817f808180000000
808181817f000000
7f817f807f000000
807f818080000000
7f8180817f000000
8081808181000000
8081828081000000
8281807f81000000
817f81807f000000
81817f7f81000000
7f81818080000000
8080828281000000
807f808181000000
807f807f80000000
807f7f7f82000000
7f81817f81000000
8081807f7f000000
8180817f81000000
807f818080000000
817f808080000000
7f807f8181000000
7f7f81817f000000
807f807f80000000
80817f7f7f000000
8180818081000000
8182828280000000
8083828281000000
8081808080000000
8182808181000000
8081818180000000
7f817f8180000000
7f807f7f81000000
81817f8081000000
8181818181000000
808180817f000000
8080818281000000
80807f807f000000
7f7e7f807f000000
7e7e7d7e7f000000
807e7e7f81000000
80817f7f80000000
7f7f81817f000000
8180818180000000
8080817f80000000
817f807f80000000
7f80807f80000000
8180808080000000
7e80807f7f000000
7f7f807f81000000
807f7f7e81000000
807e7e8080000000
7f7d7f807e000000
7f7f7e7e7f000000
8180817e80000000
81817e8181000000
8183807f7b000000
7f82817d7b000000
8083807e7c000000
8385837f7f000000
8483828180000000
807d7e7f7f000000
7f7e7e7e81000000
7f7f81807f000000
8080808181000000
8181828281000000
81807f7f7e000000
7d7f7e7c7c000000
7f7f7f7e7e000000
8180807e7f000000
80827f807f000000
8181828181000000
7f7f818081000000
7f81817f80000000
80817f8080000000
8280817e7f000000
807e7e7e7e000000
7e7e7e7d7d000000
807f7d7e7e000000
807f807e80000000
80807e7e80000000
8081828181000000
8181838281000000
8081808080000000
807f808180000000
81807f8180000000
7f82818181000000
8181818281000000
808182827f000000
8181818280000000
807f808180000000
807f7f8080000000
7f7f808180000000
7e80818280000000
8080808080000000
7f807f807f000000
7e7f817f80000000
7f80808081000000
7f81818181000000
807f818281000000
7f8080807f000000
7f7f817f80000000
7f7f818080000000
7e7f808080000000
8081818280000000
8181818181000000
807f7f7f81000000
8080828080000000
8081808181000000
7f8081807f000000
7f817f807f000000
8180808080000000
7f817f8080000000
8081818181000000
807f7f827f000000
7f80808080000000
7f8080807f000000
7f7d7f7e7d000000
7f80807f7f000000
817f80807e000000
82807f8080000000
7e7c7b7d7d000000
7e7c7c7b7d000000
807e7c7c7d000000
807e7e807e000000
807f818181000000
7e7d7f7e7f000000
807d7d8081000000
7f7e7f7e80000000
817f80807f000000
8080828181000000
7f7f7f7f81000000
7f8081817f000000
817f808180000000
807f807f7f000000
8081818180000000
7f807e7e7b000000
7f7e7f7d7a000000
81807f7d7d000000
8281817f7f000000
8281808082000000
81807f8081000000
7f8181817f000000
807e818180000000
7f8080807f000000
7f81807f80000000
7f7e7f7e7e000000
7e7e7e7f7e000000
807f7e7e7f000000
8080807e7f000000
8280808080000000
8283838080000000
828385817e000000
818483817f000000
828483807f000000
848282817f000000
8080817f7f000000
7f80808180000000
80807f8181000000
7f8182827f000000
7f81817f81000000
8080818080000000
7f807f7f80000000
807e807f81000000
818181817f000000
817f818081000000
81807f8080000000
7f7f807f81000000
7f807f8280000000
8080818080000000
807f808080000000
80807f7e7f000000
7f7f7f7d7e000000
7f7f7e7e7e000000
8180807e7f000000
8181817e7e000000
807f808181000000
7f81808181000000
807f818181000000
7f80818080000000
8082808080000000
817f7e8080000000
807f7f7f80000000
807e807f80000000
7f7e818181000000
7f8181817f000000
8181818382000000
8083818380000000
828382827f000000
8082807f7f000000
818081807f000000
807f808181000000
8081828081000000
8081828180000000
8081808180000000
7f80818181000000
807f7d7e7f000000
7e7d7c7d7e000000
7f7f7f7f7d000000
80807e7d7f000000
817f818080000000
7f7f808180000000
8081808181000000
807f818180000000
7f80818180000000
807f818280000000
807f7f7f81000000
7e7f7f7f7e000000
7e7f807f7f000000
81807e7f7f000000
81807f807e000000
7f7f7f7f80000000
7f82828282000000
7e7e7e8080000000
7c7d808383000000
7e81828384000000
7f7f7f8080000000
8080818280000000
7e7d7e7c7e000000
7d7d7f7f81000000
8081808382000000
8180817f80000000
8081808180000000
8381818180000000
8181807f7d000000
82807f7e80000000
7f7d7e7f80000000
807f818081000000
7b7c7b7d80000000
7d7e7e7f80000000
8180808282000000
7f7f828180000000
7f81808182000000
7e7d807f80000000
7d7f7e8080000000
7f7e818281000000
818182807f000000
828081817e000000
7f807e7e80000000
80807e7f7e000000
81817f7f80000000
7e80828180000000
7e80808282000000
7e807f8082000000
7e7f7f8180000000
7e7f7f8281000000
7f82818180000000
8180818280000000
807f808081000000
7f7f808181000000
7e80808080000000
8080818080000000
828081817f000000
817f808180000000
8081817f80000000
7f7f7f8080000000
7f82817f7f000000
818180817f000000
8080827f7f000000
7f7f7f7e80000000
8080808080000000
8181818080000000
8181808281000000
7f7f82817f000000
7f80807f81000000
7f7f7e7f80000000
8080818180000000
8282818180000000
808080807f000000
7f7e807f7f000000
817e80807f000000
7f80828280000000
8181828180000000
8180808082000000
7f807f8080000000
8080808080000000
7f80808081000000
7f7e808282000000
7d7d7d8081000000
7d7e7e7f81000000
7e7f7f8182000000
7d7e7d7d7f000000
7d807f807f000000
7f82818182000000
8181818282000000
8183818180000000
8280817f7f000000
818180817f000000
8280817f7e000000
8082807f80000000
817f81807e000000
8081818080000000
8181808180000000
808081817f000000
81807f7f80000000
807f7e8081000000
7e7e818081000000
7e7d7e7f80000000
7e7d7d7c7d000000
7f7f818284000000
8082828282000000
8081818180000000
8082828281000000
8181808281000000
8080817f7f000000
8080817f7e000000
8082808180000000
7f807f7e7f000000
807f7f7f7f000000
807e807f7e000000
8281818080000000
7e7e7e7f80000000
7e7f7f7e7f000000
7d7e7e8082000000
7d7c7e8182000000
7b7c7e7f82000000
8082807f81000000
808280807f000000
8181818081000000
8181807f7f000000
807f807f7f000000
8180817f7f000000
8282828181000000
7f80817f7e000000
7f807f7e81000000
8181807f81000000
818281827f000000
7f80818181000000
8080807f7f000000
7f7f818180000000
7f7f7e8181000000
807f80807f000000
7e80818181000000
7f7f7e807f000000
7e7d7e7f81000000
7f7f7f8082000000
8282818081000000
8180828180000000
808181817f000000
7f807f8081000000
81807e7f7e000000
817f808181000000
828281817f000000
80807f8081000000
808080807f000000
80817f7f80000000
7f7e808181000000
7d7e807f81000000
7e7d7f8182000000
7c7e7e8082000000
7c7e808082000000
8182818181000000
8082808080000000
818280807f000000
7f7f7f7f7f000000
807f808080000000
8081818180000000
7f8080807f000000
7e7e7e7e80000000
7f80808080000000
8281828281000000
8081808181000000
8181808280000000
8280818180000000
81807f807f000000
7f7f80807f000000
828081807f000000
8081807f7f000000
807f7f7d7e000000
80807d7f7e000000
807f7f7f7f000000
8281807f7f000000
7f7f7f807f000000
7f807f7e80000000
817e7f7f80000000
807d7e7d7e000000
838281807e000000
8180807e7e000000
82807e7b7c000000
7f7c7b7b7e000000
807f7e7c7f000000
7e7d7d8080000000
7c7c7d7f7f000000
7c7e808182000000
7e7f7f8182000000
7f7f818283000000
83817f7f7e000000
7f7f7e7d7f000000
817f7f7d7d000000
7e7c7c7c7f000000
80807e7f80000000
7f7f808180000000
828181817f000000
8181817e7e000000
817f81807e000000
8080807e80000000
8281828382000000
8081808081000000
807f818181000000
8080808081000000
7f81818181000000
817f817f7e000000
808080807f000000
808180807f000000
8180807e7f000000
8080817e7f000000
817f808182000000
7f80808180000000
818280817f000000
8081807f81000000
8180807f81000000
7e7e7f817f000000
807f7f8181000000
8180817f80000000
817f80817f000000
8080828081000000
808080817f000000
7e7f808081000000
8080818181000000
7f817f8080000000
8081807f82000000
7e80818080000000
7e817f8081000000
7f7f828181000000
8180808181000000
8180828180000000
807f7f7f81000000
817f828082000000
8080808282000000
7f81808081000000
808180817f000000
80807f7e81000000
7f7f80817f000000
7f7f817f80000000
8181817f7f000000
7f80807f80000000
8280818180000000
8081818180000000
7e7f807f7f000000
807f7e7e7e000000
7f7d7f7e7e000000
81807e7e80000000
7c7b7d7b7e000000
7c7a7c7c7f000000
7c7b7e7f81000000
7c7e7d8082000000
7e7f7f7f81000000
7e7f7f7f82000000
7f7e808180000000
7f80808180000000
807f818180000000
7e817f8181000000
8081818180000000
8180818281000000
8180808081000000
8082818181000000
817f7e7d7d000000
817f7e7d7d000000
7e7e7c7a7d000000
7e7b7c7d80000000
807e7e7f81000000
7f80808080000000
7f7f7e8180000000
807f808181000000
7f81818082000000
7f8081827f000000
8182808183000000
8081838182000000
7f80808080000000
7f7f807f81000000
80817f8081000000
8180807e80000000
8280817e7e000000
8281807f7e000000
82827e7d7f000000
81817f7d7e000000
7f807f807f000000
7f807f7f80000000
7f80818080000000
8181828180000000
8282818182000000
7e807f8180000000
8080808182000000
7f81828081000000
817f808181000000
8080818180000000
7f80808181000000
8081808081000000
8080808181000000
81817f8080000000
8080818181000000
807f828281000000
8180828081000000
7f80817f80000000
80807e7f7f000000
80807f7f80000000
7f7e818181000000
7e80808281000000
7f817f8181000000
808180807f000000
8080808280000000
807f80807f000000
7e7f807f81000000
807f7f8181000000
807f818082000000
807f818080000000
7f81807e80000000
81817f7f7e000000
807f7f7f7d000000
82807f7e7e000000
81817e7d7c000000
807f808081000000
7f7f7f8081000000
8182808080000000
8180808081000000
8182808180000000
838181807f000000
80817f8180000000
7f7d807f80000000
7e7e7d7f7f000000
807d7f8081000000
7e7e807f7f000000
807f7f8182000000
8080808280000000
8181808181000000
827f808181000000
8080818081000000
7f80818183000000
7f7f818182000000
7f7f808180000000
8080818081000000
8081818281000000
7f81818282000000
7e7e818282000000
7c7b808281000000
7d7c7d7e80000000
7e7d7e7d7e000000
7f7e7d7e7f000000
7d7c7f7d7e000000
7b7c7d7e7e000000
7d7d7e7f7e000000
8080818080000000
7f81807e7e000000
7f807f7f80000000
7f81828282000000
7f80818081000000
7f7f807f81000000
7d7e7f8082000000
7d7c7e8080000000
7b7a7a7d80000000
7b7b7b7e80000000
7f80818280000000
8080808381000000
8180828282000000
7f7d7f8180000000
7f7d7e807e000000
8082828281000000
8080808181000000
807e817f80000000
7d7e7e7d7e000000
7e7e7d7d7d000000
807f828180000000
8081828180000000
8081808180000000
7f7e81807f000000
80807e7f81000000
817f818181000000
7f80818181000000
8080818180000000
807f818081000000
808080817f000000
7e81818081000000
8080807f80000000
7f80808181000000
8182808082000000
807f818281000000
8181808180000000
818081807f000000
8180807f81000000
8081808080000000
8181818081000000
808082817f000000
8080818081000000
7f7f7f7f80000000
80817f8081000000
807f80817f000000
8180818080000000
818282817f000000
8181818280000000
8081818180000000
807f807f81000000
80817f8180000000
7f7f828080000000
8180828180000000
817f818080000000
8080818080000000
7f80808180000000
7f7e808381000000
7e7f7f8281000000
7b7c7e7e80000000
7e7c7d7d7f000000
807f7f7e7d000000
7e7e7e7d7e000000
7d7c7c7f7f000000
7c7d7e8182000000
7e7f808383000000
8080808180000000
7f7f7f8080000000
7f807e807f000000
807e7f7e80000000
807e7f7f7f000000
808080807f000000
818080807f000000
817f808081000000
7f81808082000000
817f80817f000000
7d7c7d7e7f000000
7c7d7c7f81000000
7b7b7c7f7f000000
78797a7d7e000000
7d7b7d7e7f000000
807f7f8080000000
7f7f818080000000
8180808080000000
8181808081000000
80817f8081000000
81807f817f000000
8081818280000000
7f807f7f7f000000
7d7e7d7d7f000000
7e7e7f7e7e000000
7d807f8081000000
7f7e7f8080000000
7f807f807f000000
80817f807f000000
7f7f81807f000000
808080807f000000
8181808081000000
8081807f80000000
7f80818182000000
807f818080000000
8181818180000000
81817f8180000000
7f80818281000000
7f7f80817f000000
8080817f81000000
8182828181000000
8081828280000000
817f818281000000
8180808081000000
807f7f7e7f000000
8081818282000000
7e80808283000000
807e818281000000
7e7c7d7f81000000
807e7e7f80000000
7f7f7f8080000000
7f7f807f7f000000
807f818181000000
80817f7f81000000
8080818180000000
7f807f8180000000
7f817f8181000000
817e817f81000000
8080808180000000
807f7f8080000000
7d7e808080000000
7e7e808181000000
807f7f8081000000
7f80808080000000
7f7f7f8080000000
817f81807f000000
8081808180000000
817f7f8080000000
7f81828280000000
807f807f81000000
8081818181000000
8180808280000000
7f807f8181000000
7c7b7e7e7e000000
7d7c7c7f81000000
8180817f80000000
7f8080807f000000
7f817f8080000000
8080828081000000
807f7f8180000000
808082817e000000
807f808180000000
7f7f818081000000
807e7f7e81000000
7f7c7e7e7e000000
7f7e808080000000
7f7e807f81000000
7f7f7f7f7f000000
7f80807f80000000
8081828381000000
827f7f7f7f000000
8080807f81000000
8481818082000000
8382827f82000000
8282838283000000
7f7e808081000000
807e818081000000
8082818282000000
8083818180000000
8282827f80000000
7f80807f7f000000
7f7e7f7f81000000
8080807f80000000
81817f8181000000
8081818180000000
8081818080000000
807f818180000000
7e7f80807f000000
7e7e7f817f000000
808081817f000000
7f80807f80000000
7f7e807f80000000
7e7d807e7f000000
7e7f807f7e000000
817f81817f000000
818080807f000000
8180818081000000
7e7f818080000000
7f7f808080000000
7f7e817f80000000
807f7f7f80000000
7f8080807f000000
808081807f000000
80817f7e7e000000
7e807f7f7e000000
7e80807f7f000000
7f807f8081000000
7f80828080000000
7f8180807f000000
817f808080000000
808081817f000000
8080817f80000000
7f81808181000000
8082807f80000000
8080807f80000000
8080818080000000
7f81828181000000
7f80808180000000
807f80807f000000
808081807e000000
7f8081817f000000
8080807f7f000000
7f80817f81000000
7f7f81807f000000
7f7f808081000000
80807f817f000000
807f818081000000
807f818180000000
7f7f81817f000000
8080817f80000000
7f7e80807f000000
7d7d808081000000
7f7f7e7f7f000000
807f81817e000000
807f818281000000
7e7e7d7d7f000000
7d7e7d7e7f000000
8180808282000000
8282828482000000
8382848483000000
7f7f7f7f80000000
7f7e808180000000
8081808180000000
808182817f000000
808082807f000000
7f81807f7f000000
8081808081000000
818181817f000000
7f7f828080000000
818081817f000000
7e81807f82000000
807e7e7f80000000
7f7f7e8081000000
8282808382000000
8282828382000000
8080807f80000000
8081808280000000
7f8180817f000000
8180818080000000
81817f807e000000
7f7f81817e000000
7e7e807e7e000000
7f7e80807e000000
807e7f7f7e000000
817f808181000000
8280807e80000000
8181807f7e000000
8281807f7e000000
8282817f80000000
817f807d80000000
7f7f80817f000000
818280827f000000
8180807f80000000
808182807f000000
8081807f81000000
7f81828080000000
7f81818081000000
8181818180000000
7e80817f80000000
7f7f7f8080000000
817f808080000000
7f81808081000000
8081817f80000000
7f7f817f7f000000
7f80817f80000000
807f7f8081000000
7d7d807f7f000000
7f7d7e807f000000
807e80807f000000
7f7e81817f000000
8180827f80000000
8081808080000000
8181828180000000
7f7f807f80000000
817f817e7e000000
7f7f7f817f000000
7f80807f7f000000
7f8082827f000000
8080808080000000
7f80808080000000
818081817f000000
8080817f80000000
817f808080000000
7f7f7f807f000000
7f807e7f81000000
8081818181000000
808182817f000000
7f8180807f000000
7f7f817f81000000
7f8081807f000000
807f818081000000
7d7d7e807f000000
7d7e7f7f7f000000
7e7f7e7f7f000000
7f80818281000000
7f80817f80000000
7f81808180000000
808282807f000000
8081818080000000
818080807e000000
7e7f818081000000
7e7f807f7f000000
7e80817f7f000000
8080807e7f000000
7f80807f7f000000
7f7e818181000000
7f7f808382000000
7f7d7d8080000000
7e7e808082000000
7f81808281000000
8384848082000000
8484837f81000000
81817f7e81000000
817f7f7f7f000000
81807f7f7f000000
808182807f000000
8081818282000000
8281838380000000
8182818081000000
808080817f000000
8181818181000000
8382818181000000
80807f7d7f000000
8181807f7f000000
807f807f80000000
7f80828280000000
8180808080000000
7f7e7e807f000000
7f7f7d8081000000
7f80807f81000000
8181828182000000
8281828482000000
8182818280000000
8180808282000000
8182828283000000
807f81807f000000
7f7e7f7f80000000
7f7e7d7f7e000000
7f7f7f807f000000
7f8080807f000000
808081817f000000
7f81807f80000000
817f807e7e000000
7f7e807f80000000
817e7f7e80000000
807f818080000000
7f81808081000000
7f81808181000000
81817f7f80000000
7f81817e80000000
818082817f000000
8082808080000000
8180818081000000
817f7f7f7f000000
818080817f000000
808081817f000000
7f81808081000000
7f7f817f7f000000
807f7f7e7f000000
7f7f807f7e000000
8081808281000000
8180808081000000
7f8080807f000000
7f817f8080000000
8180808180000000
7e80818180000000
7e7f808081000000
7f7f808180000000
7f7f807f80000000
80807f8081000000
8181808182000000
8081808182000000
807f7e7f80000000
7f7f808181000000
7f7f808180000000
807f817f80000000
8182818382000000
8083838282000000
8183818181000000
807f80807e000000
7f7f828180000000
8081838381000000
8182818282000000
8281838281000000
8182818180000000
7f81808181000000
8081818080000000
8181818081000000
807f817f7f000000
8080808081000000
8183828482000000
8282818082000000
7f7f7e7e80000000
7f7f7f8080000000
807f7e7e80000000
7f80818181000000
817f808180000000
8080818081000000
80817f7f80000000
7f7f808180000000
8281828483000000
8282828483000000
8080828381000000
8182808183000000
8180808180000000
7f7f7e7d7e000000
7f7f7f7e7f000000
7e7f7e7d7e000000
7f7f7d7e80000000
7f7e7e8081000000
7f82828181000000
8080828180000000
8181808080000000
807f7f807f000000
7f7f7f7f7e000000
8081828281000000
8081808281000000
7f80808082000000
8180808080000000
8080807f80000000
8080818280000000
7f8080827f000000
817f7f8081000000
7f807f8080000000
7e80808080000000
7f80828182000000
8080818281000000
807e7f7f82000000
807e7f8081000000
7e7e808181000000
8080808081000000
8180808080000000
8080817f80000000
818081807f000000
7f7f807f7f000000
7f80818081000000
8181828181000000
8082818282000000
7f7f808280000000
7f80807f80000000
7f7f7e807f000000
7e7e7e7e7f000000
7f7e7e7d7e000000
7f7f7c7d7f000000
7e7e7f7e80000000
8081818080000000
81807f8180000000
7f7f7f8080000000
80817e7f7f000000
7f807f817f000000
8081828282000000
8080828282000000
8080818484000000
8280818383000000
8082828082000000
7e81818080000000
807f808081000000
8181818180000000
80817f807f000000
8080807f7f000000
8182838282000000
8281828282000000
8181818082000000
7f81808081000000
817f818080000000
7f8282807e000000
8081808180000000
8081818080000000
7e80818183000000
7d80818182000000
7d7c7c7d81000000
7d7e7f8082000000
7f7d7f7e82000000
807c7e8083000000
7f7c7d7f82000000
8082818281000000
8282808281000000
828182807f000000
8182838181000000
8181818281000000
7e80818181000000
7f7f828181000000
7e81828183000000
8081828283000000
7e7e808182000000
807f807e7e000000
80807f7f80000000
807f7f7f80000000
7e807f8180000000
7e7f80817f000000
818180827f000000
8082808280000000
8082838280000000
7f82818380000000
8180828181000000
81807e7f80000000
80807f7f80000000
8080808080000000
7f7e80807e000000
7e7d7f7e7f000000
81807f8080000000
807f817e80000000
80807f807e000000
807e7e8080000000
7f7e80807f000000
80807f7f80000000
7f8081817f000000
7f80827f7e000000
8181818080000000
7f81817f80000000
82817f7f7f000000
8181817f7f000000
818180807f000000
7f7f81817f000000
8080808181000000
81817f7f7f000000
8182808080000000
80807f8180000000
81807f807f000000
80817e7f7e000000
80807f817f000000
8081817f7f000000
8181817f80000000
81817f817f000000
7f7f818180000000
807f818080000000
81807f807e000000
807f80807f000000
7f80807f7f000000
80807f7e7e000000
8180808080000000
7e81818282000000
7e81818181000000
7d7f808280000000
7c7e7f8282000000
7e7f818282000000
8080808182000000
8081818381000000
8184858484000000
8182838483000000
8081818281000000
8180828280000000
7f8081837f000000
818282817f000000
8182828281000000
8081807f7f000000
818180807f000000
8181817f7f000000
808180807f000000
8180807f80000000
7c7d808182000000
7d7f818184000000
7f80818382000000
7f81808282000000
7e7f808180000000
808080807f000000
818081817f000000
808181807e000000
817f7f7f80000000
8080807f80000000
8081828281000000
8081828280000000
8181838281000000
8082818183000000
8181808182000000
7e7e7d7d7f000000
7e7d7b7d7f000000
7e7c7c7c7f000000
7d7c7c7d7e000000
7d7b7c7e7f000000
7f80808081000000
818081807f000000
8081818080000000
8182808080000000
8081808081000000
8081807f7e000000
7f80828081000000
8080817f7f000000
7f81827f81000000
807f80817f000000
7f81818180000000
8080807f80000000
7f8281807f000000
80817f8080000000
807f7f807f000000
8081808080000000
7e7f818280000000
7e80808282000000
7d80828280000000
7e7f818181000000
817f808081000000
8080807f7f000000
808280817e000000
7f7f818080000000
808080817f000000
8182828181000000
7f80818081000000
808182807f000000
8081828181000000
8080808180000000
807f807f7e000000
7e807e7e80000000
7f7f7f7f80000000
7e7d7d7d7e000000
7f7c7d7e7f000000
818080807f000000
808081807e000000
8080818080000000
7f81807f80000000
817f7f7e7f000000
808281807f000000
8080828182000000
8082818383000000
8182818382000000
7e80818183000000
81817f807f000000
808080807f000000
81807f817f000000
8180808180000000
818081817f000000
808181827f000000
8183828281000000
8082808281000000
7f82828181000000
8182808281000000
807f7e7d7d000000
817f7f7e7c000000
7e7f7f7d7a000000
808080807f000000
7f82808180000000
8181828181000000
817f808182000000
7d7e7f7f81000000
7e7d807e81000000
7e7f7d7d80000000
817f807f7e000000
817f807e7f000000
8181817f7f000000
80817f7f7f000000
818180827f000000
807f817f80000000
7e7f7f7e7d000000
7f7e7e7e7d000000
7e7f7f8180000000
807f817f80000000
807f807e7d000000
80827f7f7d000000
8082807f7e000000
8180808080000000
808081807e000000
81817f7f7e000000
828380807d000000
848381807d000000
818382807f000000
8081827f81000000
8081817f81000000
81807f7f7f000000
8081807e7f000000
808081807e000000
7f807f7f7f000000
7f81818181000000
8181807f7f000000
8180817f80000000
8180818080000000
807f817f7f000000
80817f7f80000000
8081808080000000
80807f8180000000
8082818180000000
8081828080000000
7f8180817f000000
807f7f8081000000
808081807f000000
818281807f000000
807f817f80000000
8081807f81000000
80807f8180000000
818180807f000000
8180807f7f000000
8082817f80000000
7f817f8181000000
8281808081000000
81807f807f000000
8182807f81000000
8081807f80000000
817f807f81000000
80817f8080000000
828080807f000000
8181808180000000
808081817f000000
80807e7d7d000000
8180807d7c000000
8281807e7c000000
8181818080000000
8080828081000000
7e7e807e7e000000
7d7e7f7f7c000000
7e7d7d7e7d000000
808180807f000000
8282828181000000
828080807e000000
8280817f80000000
8182827f81000000
828280807f000000
808182817f000000
7f80807f80000000
8181807f81000000
8181807f81000000
82807f7f7f000000
8281807f7e000000
7d7e7f7e7e000000
7f7e7e7c7b000000
7d7e807f7e000000
7e7e807f7f000000
7d7f7f7f7f000000
817f817f7f000000
7f817f8081000000
80817f817f000000
828181807f000000
808081807f000000
818080807d000000
8283827e7e000000
8383827f7e000000
8182827f7f000000
81817f8280000000
8180828183000000
81807f8084000000
7f7f7f8182000000
7e7f7f7f81000000
7d7f7e7e7f000000
7f7f7f7f81000000
80807f807f000000
8080807f80000000
828181817f000000
81817f7f7f000000
817f808081000000
8181817e7e000000
828081807e000000
8281807f7e000000
81807f7f7f000000
81817f7f7f000000
8281817f80000000
80827f807f000000
8182818080000000
7f81808180000000
8180817d7d000000
8181827d7e000000
808282807e000000
808381807f000000
808180807f000000
81807f8081000000
817f818080000000
82827f8081000000
8081807f80000000
8181818080000000
808280807f000000
81817f7f7e000000
8281807f7f000000
8282818081000000
8081818081000000
7f817f8081000000
7f7f7f8081000000
7f80807f80000000
7e80808080000000
7e7f808080000000
7f817f7f80000000
7f817f8080000000
7f80818180000000
7f8180807f000000
817f81807f000000
81807d7e7d000000
8382807d7b000000
81837f7d7c000000
8182818080000000
7f81808280000000
817f7f8181000000
82817f7f7f000000
8081808081000000
817f807f81000000
807f7f8180000000
8080807e7e000000
82817f7f7f000000
8382817f7d000000
808281807e000000
80807f8181000000
7e80838081000000
7e81818281000000
7e7f808281000000
7e7c7e7f80000000
807f7e8080000000
807f828182000000
8083838282000000
8382848181000000
848683827f000000
858582807c000000
8081817e81000000
81807f7d7e000000
7f807f7e7f000000
7f8081807f000000
808181817f000000
7e80818280000000
7e7e818082000000
7f7e808080000000
8081807f7e000000
8182807f7c000000
818083817f000000
7f80828381000000
7e7f818181000000
7f7e818082000000
8080807f81000000
7e8180807f000000
7d7e81807e000000
7e7d807e7f000000
807e7d7e7f000000
82807f7d80000000
7f80828280000000
7e80828182000000
8081838383000000
8080818181000000
8080818180000000
817f807f80000000
7f80818081000000
7f81828181000000
7f82808181000000
818080807f000000
8181808180000000
8181818180000000
8181818181000000
7f7f808081000000
7f7e7f8181000000
8081808080000000
808180807f000000
807f80817f000000
817f82817f000000
8081807f80000000
8181817f80000000
7f7f808081000000
807e808180000000
8081818280000000
7f7f807f81000000
8180808180000000
807f80817f000000
7f81808180000000
7f8182807f000000
8180817f7f000000
8282807f81000000
8181828181000000
7f80818080000000
7f7f808182000000
7f7f828081000000
7f81818280000000
7c7e818281000000
7f7e808282000000
807e7f807f000000
827e7e7f7d000000
8182818180000000
818280817f000000
8380807d7b000000
817e7c7d7e000000
7e7e7d7e7c000000
8080807e7e000000
7f7e807e7e000000
807f7d7f7f000000
807e7d7f80000000
807f7f8080000000
80807f807e000000
8181818080000000
7f817f7f7f000000
7f81808281000000
7f80828180000000
7e80828482000000
7f80828183000000
7f8081807f000000
8382817e7d000000
8181807e7c000000
8282807e80000000
80807f807e000000
817f818180000000
7f7f7f8081000000
808082807f000000
7f7f7f807e000000
7d7d80807f000000
7e7d7f7f80000000
7f7e7f7d7f000000
82807e7e7f000000
807f7e8181000000
7f81818081000000
828484837f000000
8383838480000000
808384817f000000
81817f7f7e000000
8080817f80000000
817f818181000000
7f80808080000000
7f7f82817f000000
817f7f7f80000000
808181807e000000
807f7f807f000000
7f80808180000000
7f7f807f7f000000
7f81818180000000
8080828280000000
8080808081000000
817e7f8180000000
807f80807f000000
8080828280000000
7e7f828280000000
7f7f807f81000000
807f7e807f000000
83807f7f80000000
807f80807e000000
807f817f7f000000
807f808080000000
7f81818181000000
8180818081000000
8182817e7e000000
817f7f8080000000
817e808080000000
7f807e8181000000
827f7f807f000000
8080818282000000
7e80808282000000
7e81808381000000
7f80828282000000
8083818080000000
807f81807f000000
8081817f7f000000
807f807f80000000
7e80818281000000
7f80808080000000
7e8182827f000000
7f80808281000000
807e807f7f000000
807f7d7e7f000000
81807f7f7f000000
807f818181000000
7f8080817f000000
7f7f808180000000
7e7f82807f000000
808080827f000000
7f7f7f7f7e000000
7f7e808181000000
7e7d7e7f7f000000
7e7d7e7f7d000000
827f7f7e7f000000
