817f808180000000
808081807f000000
8181818080000000
808181817f000000
80807f8180000000
7f7f7f8180000000
7f80818181000000
8181817f80000000
818080807f000000
7f7f7f8081000000
807f808081000000
7f80808181000000
7f80808081000000
818180817f000000
807f807f80000000
80817f7f81000000
81817f817f000000
8180818081000000
8080818181000000
8181818080000000
8081818080000000
818081807f000000
8080818180000000
807f818080000000
808080807f000000
818180817f000000
8080818080000000
808081807f000000
8081808180000000
8180808082000000
80817f7f81000000
817f7f7f80000000
8080817f81000000
8081818081000000
8080808081000000
807f818180000000
808080807f000000
7f7f7e7f81000000
807f808080000000
8080818080000000
8181808080000000
7f817f8080000000
8080807f81000000
80807f7f7f000000
7f80808180000000
817f7f7e7f000000
817e7e7d80000000
817f7f7d80000000
80817f7f7e000000
7f7f7f817d000000
808081807f000000
818180807f000000
808180807f000000
7f8282817f000000
818181817f000000
8180808080000000
8180817f80000000
807f7f8081000000
8180808080000000
8081808181000000
8080817f80000000
7f8080807f000000
7e7f7e8181000000
8181807f80000000
81817f7f7f000000
8080808080000000
818080817f000000
8080808081000000
807f818181000000
817f7f807f000000
7f80807f7f000000
808080807f000000
808181807f000000
8080818081000000
7e807f8080000000
818180807f000000
8180808080000000
8080818180000000
8081818081000000
80807f8182000000
808281807f000000
8181817f7f000000
8081807d7f000000
7f80807e7e000000
7d7f807e7e000000
818080807e000000
8081807f80000000
7f807f7f81000000
7f807f8080000000
8081818080000000
8081807f80000000
8281807f80000000
7f817f7f80000000
7f81818080000000
81807f827f000000
80807f7f80000000
807f81807f000000
7f807f7f81000000
8180807e80000000
807f807e81000000
818180807f000000
8080807f80000000
7f7f81817f000000
7f7f808181000000
8180808181000000
7f80818080000000
7e80818080000000
7f7f808181000000
827f818381000000
807f7f8381000000
8080808080000000
8180818080000000
8180818180000000
8180818180000000
807f808181000000
8081817f80000000
817f81807f000000
7f81817f7f000000
818080807f000000
7f7f80817f000000
7f81817f80000000
8180807f80000000
8080807f7f000000
8180818081000000
7f81808081000000
81807f7f80000000
817f7f8081000000
7f807f7f81000000
81817f7f7f000000
80817f8081000000
818080807e000000
7f81807e7f000000
808080817f000000
8181817f7f000000
7f80818080000000
817f807f7e000000
808080807f000000
7f8081817f000000
808080817f000000
8080808081000000
8080808080000000
808080807f000000
807f7f7f7f000000
8080808081000000
8182818180000000
818080807f000000
7f80808080000000
80807e8081000000
8180818181000000
7f80817f82000000
8080807f80000000
80807f8080000000
807f808082000000
8181818081000000
7f81807f81000000
8081818080000000
8082807f7f000000
8081818080000000
8080808080000000
7f7f808180000000
8181808180000000
817f818080000000
7f807f817f000000
7f8180807f000000
7f8181807f000000
80807f8181000000
8080808180000000
8080808080000000
8180808080000000
807f818081000000
817f7f817f000000
827e80827f000000
807f808180000000
7f80818080000000
8080818181000000
808081807e000000
807f80817e000000
807f7f8080000000
8180808080000000
81807f8081000000
808180807f000000
818181807f000000
807e807f80000000
7f80808182000000
8081808180000000
7f7f81817f000000
807f80807f000000
817f808080000000
8180808181000000
8180818181000000
81807f8080000000
8181808081000000
80807f807f000000
81817f8180000000
8180807f7f000000
827f80807e000000
817f7f8280000000
8180818080000000
8080808180000000
7f80808081000000
807f817f7f000000
80807f8180000000
807f7f8080000000
7f7f818080000000
8081808180000000
80817f807f000000
808281817d000000
818083817f000000
7f7d808281000000
7f7e7e8180000000
8081808080000000
808182807f000000
7f8082817f000000
8180818080000000
8080807f80000000
807f7f8081000000
817f81817f000000
8180808080000000
8080807f80000000
807f807f80000000
817f7f807f000000
82807e7f7f000000
82807f8081000000
807f80817f000000
7f80808081000000
7f8081817f000000
8080818280000000
807f808280000000
8180817f7f000000
80807f807f000000
80817f8180000000
8181808181000000
818081817f000000
808181817e000000
8180807f80000000
817f7f8181000000
81807f8081000000
8080808181000000
81807f8181000000
808080807f000000
83837e7d80000000
8182807c7e000000
818181807e000000
7e7d7f8080000000
7f7e80817e000000
80827e8081000000
7f7f7e8081000000
7f7e808080000000
8080807f80000000
7f8080807e000000
807f817f7f000000
7f81817f7e000000
81807f8180000000
7f7f80807f000000
8080818080000000
81817f7f80000000
8282808080000000
817f808081000000
7f7f808081000000
7f7f7f8080000000
7f7f818080000000
81807f807f000000
8180808180000000
81807f8180000000
808081807f000000
80807f8080000000
807e828281000000
8181818080000000
7f8281817e000000
808281817f000000
80807f8080000000
8180818080000000
8080807f7f000000
808080817f000000
8180808080000000
7f80808080000000
7f8181817f000000
807f7f8180000000
7f7f808181000000
807f807f80000000
818181807f000000
818081807f000000
7f7f7f7f7f000000
807f7f7f7f000000
817f807f80000000
7f7f81817f000000
807f7f817f000000
7f7f7e8080000000
7f807f8180000000
8180818180000000
808081807e000000
7f7f807f7e000000
818080807f000000
807f7f8080000000
80807f8181000000
817f818281000000
807f818080000000
8180808180000000
81807f7f81000000
7f7f808080000000
807e808180000000
807f807f80000000
8080808180000000
7f80807f81000000
8080807f7f000000
80807f8080000000
81807f807f000000
81817f7f80000000
80807f8080000000
8080807f81000000
8281807f7f000000
81817f7f7f000000
8080807f80000000
8080807f80000000
8180807f80000000
7f80808280000000
8180808281000000
818080827f000000
807f818180000000
817f808080000000
807f81817f000000
8181818180000000
808080817f000000
8081817f80000000
807f808180000000
8081818080000000
8181818180000000
8181818180000000
8081818181000000
8181818180000000
8183827e80000000
8281808081000000
81807f7f7f000000
817e7e8080000000
80807f8081000000
807f818081000000
8180807f80000000
7f80807f7f000000
8080817f7f000000
7f8181807f000000
8180828180000000
8181808081000000
7f80817f7f000000
7f8180807f000000
8081818081000000
807f817f7e000000
8081818080000000
7f7f80807f000000
807f807f80000000
807f7f8080000000
8180808081000000
808081807f000000
807f7e7e80000000
807f7f7f81000000
81807f7f81000000
8282828080000000
818180817f000000
7f8080807f000000
807f7f8181000000
7f817f8180000000
8181808080000000
818281817f000000
7f81808081000000
8180818181000000
8081808182000000
8081807f7f000000
7f80827f81000000
7e80828082000000
7f807f8181000000
8080808181000000
8180807f80000000
807f807f80000000
7f80818080000000
8081817f81000000
807f81807f000000
818081807f000000
8180817f7e000000
807e80807f000000
80807f7f7f000000
817f807f81000000
7f81828081000000
808182817f000000
808080817f000000
80817f817f000000
8080807f81000000
808181817f000000
7f81817f80000000
8181807f80000000
8081818180000000
807f818081000000
8282817f80000000
8181818180000000
808181817f000000
7f7f7f7f82000000
807f808282000000
807f807f7f000000
8081808080000000
808180817f000000
80817f8181000000
817f808081000000
828283827e000000
8083818182000000
7f81818182000000
7f80807f81000000
817f7e7f83000000
82807f8181000000
807f7f7f7e000000
80807e7f7f000000
8080807e80000000
817f7e7e7f000000
8081808181000000
7f81818081000000
8080818181000000
8081808180000000
8081807f81000000
8181827f7f000000
8082808181000000
7f80818081000000
8181817f7f000000
7f80817f81000000
807f7e807e000000
8080807f80000000
7f807f8080000000
8182818080000000
80807f8081000000
8081817e80000000
8081807f81000000
807f7f8080000000
807f7f8080000000
817e808081000000
8180818081000000
818081817f000000
8181807f7f000000
818080807f000000
80817f7f80000000
7f80807f7f000000
8181817f81000000
808081807f000000
8180818080000000
807f807f81000000
7f807f8080000000
818181807f000000
818082817f000000
7f80817f80000000
817f80817f000000
807f81807f000000
8180807f7e000000
81817f807f000000
7f7f817f7f000000
8081808081000000
81817f8180000000
8081818180000000
80817f807f000000
81817f7f80000000
7f7f808081000000
817f81817f000000
7f7f807f7f000000
8080817f80000000
807f80807f000000
8180808080000000
8180807f80000000
807f817e7e000000
807f807f7e000000
80807f8080000000
807f808080000000
807f808080000000
818080817f000000
808080807f000000
7f7f7f7f7f000000
8081818080000000
8080817f7f000000
818281817e000000
80807f7f7f000000
807f807f80000000
818081807f000000
7f7f807e81000000
8181807f80000000
818081807f000000
817f7f8180000000
8180808181000000
8180818082000000
8080807f81000000
817f807f7f000000
808080807f000000
81807f7f7f000000
8080807f81000000
807f807f80000000
8180817f80000000
81807e7f7f000000
807f7f7f80000000
8080808181000000
7f807f817f000000
82807f7f7f000000
81817f7f81000000
7f80808180000000
7e7e7f8181000000
7f80818181000000
8080807f7f000000
81817f7f7f000000
81807f8080000000
7f80808180000000
8180817f81000000
8180817f7f000000
80807f7f7f000000
81807f807f000000
8180808081000000
8080817f7f000000
80817f7f7e000000
7f807f7f80000000
8080807f80000000
7e7e7e7f80000000
7f7f808283000000
7f81818281000000
7f8081807f000000
8080817f80000000
8081807f7e000000
807e7f7f7f000000
80817f7f80000000
7f81817f7f000000
8080817f7f000000
7f7f80807f000000
7f807f7f7f000000
8181808081000000
81817f8081000000
7f8180807f000000
817e7f8180000000
818181807f000000
808082807f000000
828080807f000000
8281808081000000
80807f8282000000
8180818181000000
7e80818081000000
8181818180000000
80817f8080000000
7f7f808181000000
8080818281000000
7e8080817f000000
8081807f80000000
7f817f8080000000
80807f8080000000
7f7f817f80000000
8181818080000000
808080817f000000
8080807e7e000000
8180818082000000
8181807f7f000000
808080807f000000
81807f7f7f000000
7f807f7f7f000000
7f7f7f7e7e000000
807f7e8081000000
8082808083000000
7e807f8181000000
808082807f000000
8180818180000000
8180808080000000
8180817f80000000
8081818081000000
7f807f7e7f000000
7f807f7f80000000
8180807f82000000
82817f7e81000000
7e7e7e7f7f000000
807f818480000000
7f7e7d8081000000
807e818081000000
7d7f808181000000
808182817f000000
7f81817f80000000
8180818181000000
807f828080000000
807f807f7e000000
827f817f81000000
8180818181000000
7e817f807f000000
808180807f000000
8281817f7f000000
7f807f807f000000
808182807f000000
8082818082000000
7f8181817f000000
818281807f000000
8280807f7f000000
807f807f81000000
818081817f000000
807f807f80000000
817f7f7f82000000
80807f8182000000
7f80807f7f000000
7f81818081000000
8180808181000000
80817f7f80000000
8180807f7f000000
81807f8080000000
8081808180000000
818282807f000000
8180807e7f000000
807f7f7e7f000000
807f808080000000
807f808182000000
8080818182000000
7f807f8180000000
808181807e000000
7f807f807f000000
8080808280000000
7f807f817f000000
81817f7e7e000000
817f808081000000
8080807f80000000
8282808180000000
7f80808180000000
8080808080000000
8281808181000000
7f80808080000000
81807f8181000000
8080818080000000
7f817f8180000000
8081807e7f000000
817f7f817f000000
7f7e7f8181000000
7e807f8281000000
8081818181000000
8181807e7e000000
7f81818080000000
7e80808081000000
7e80808181000000
8080818081000000
8081817f7f000000
7f8080817f000000
7f81807f80000000
8181808181000000
8081818080000000
7f8180807f000000
7f807f807f000000
8181818181000000
8080817f80000000
807f807f81000000
8080808080000000
808080807f000000
817f818180000000
8080807f80000000
817f807f7f000000
8181818181000000
8081808180000000
7f80808180000000
8081808181000000
8081808181000000
8081818181000000
8181818181000000
8080808081000000
817f7e7e7e000000
7f807f7f7f000000
807f7f7e80000000
807e7e7e7f000000
8180818082000000
817f817f81000000
7f7f807f80000000
7f7f7e7e7f000000
7f7f7d7e7e000000
7f80808180000000
8080817f80000000
807f7e7f7f000000
81807f8080000000
8081807f80000000
8181818081000000
8181807f80000000
8080807f80000000
817f808080000000
7f7f808080000000
807f7f8081000000
8080808080000000
80807f7f80000000
81807f7e7e000000
80807f807e000000
807f7f8080000000
81817f7f7e000000
807f7f8180000000
817f808080000000
80807f8081000000
8180817f80000000
80807f7f7f000000
818180807f000000
818080817f000000
8081808081000000
7f807f8080000000
7f81808182000000
81817f7f81000000
807f7d7e7f000000
7f80807e7e000000
8081807f80000000
7f80818081000000
807f808181000000
807f7f7f7f000000
807f7f8081000000
8180818080000000
817f818180000000
817f80807f000000
7f7f7f7f80000000
817f7f8180000000
8081818181000000
807f80807e000000
818181807f000000
8080808080000000
7f80807e7f000000
818081817f000000
8080807f7f000000
808080817f000000
8081818281000000
8081818080000000
7f807e7f80000000
81807f8080000000
8180818282000000
818180807f000000
7f817e7e81000000
8081818181000000
7f817f817f000000
807f818181000000
817f818080000000
8081818081000000
7f7f7f7f7e000000
8181808080000000
81807f7e82000000
7f7f7e7d80000000
807e7d7e80000000
8180807f81000000
81817f8181000000
8081807f7f000000
8283807e7f000000
80807f7f81000000
8081818181000000
817f818180000000
81807e7f80000000
81807f7f81000000
7f7f817f80000000
808080807f000000
7f807f807f000000
7f80818180000000
7f7f7f8080000000
7f8080817f000000
8181828181000000
8080807f7e000000
81817f807f000000
8080818182000000
8081818080000000
8181817f81000000
7f807e7e80000000
81807f8181000000
7f7f7f807f000000
7e7e7e7f80000000
808080807f000000
81817f8180000000
8181807f7f000000
8180808281000000
81807f807f000000
8181808180000000
8181808181000000
8080807f81000000
817f7f807f000000
808081807f000000
807f7f8180000000
8180808180000000
8081808080000000
82807f7f80000000
80817f807f000000
8080808181000000
807f7f7f80000000
7f7f807f80000000
7f7f818180000000
807f808180000000
8080818082000000
8080808080000000
81807f7f80000000
817f7f8080000000
808080817f000000
7f7f818180000000
7f7f817f81000000
818180807f000000
817f7f8080000000
817f80817f000000
807f808181000000
8180808081000000
8180817e7f000000
807f7f7f81000000
817e7f7f7f000000
807f808080000000
80807f7f80000000
81817f8081000000
80807f7f80000000
80807f807f000000
8181808180000000
8180807f7f000000
80817f7f80000000
81807f807f000000
808080807f000000
7f80817f81000000
807f7f8080000000
827f7f8180000000
808181807f000000
8081808080000000
81817f7f80000000
81807f7f81000000
8081807f80000000
8080808080000000
7f81817f80000000
7f7f7f7f80000000
80807f8180000000
8181818080000000
81817f7f7f000000
8081818180000000
7f817f8081000000
7f7f807d81000000
7e8080807f000000
807f81817e000000
807e7f7f80000000
7f807f8081000000
817f7f7f80000000
80807f7e80000000
8080807e7f000000
818180817f000000
7f817f8181000000
807f808081000000
8080807f80000000
817f7f8181000000
8180818081000000
8180817f81000000
7f807f7f80000000
8081807f81000000
81807f8080000000
81807f8081000000
807f7f807f000000
8180828080000000
7f7f817f7f000000
7f8081817f000000
818280807e000000
8183817f81000000
7f80807e80000000
7f7f81817f000000
7f7f81817f000000
80817f7f7f000000
80817f7f80000000
807f7f7f81000000
8080818080000000
808080817f000000
8080808080000000
817f808181000000
807f7f8282000000
807f7e8183000000
7f7f7d7f81000000
82817f7e80000000
81807f8081000000
8180818280000000
7f81818082000000
807f807f80000000
8181817f7f000000
80807f8180000000
8081817e81000000
808180807f000000
808080817f000000
80807f8181000000
7f82807f81000000
7e80817f80000000
7f7f807f80000000
7f7f81817f000000
7f7f7e8181000000
817f808181000000
80817f8181000000
807f7f7e81000000
8180807f7f000000
7f80808180000000
8081818080000000
7f80818180000000
818082817e000000
818082817f000000
7f817f807f000000
8080808181000000
8180807f80000000
8081808081000000
807f7f7f80000000
81817f8180000000
8180838280000000
807f828481000000
7e7e818480000000
7e7f818283000000
807f807f80000000
817f7f8080000000
808180807f000000
8080817f7f000000
8081817f7f000000
8082808080000000
807f7f8280000000
8082808183000000
8081817f82000000
7f80817f80000000
8080808181000000
8080807f80000000
7f7e808180000000
80807f8280000000
7f7e808281000000
7f807f7f81000000
8081808080000000
8080807f80000000
7f80818080000000
80807f8181000000
7f817f8080000000
82817f8181000000
7f80808182000000
807f818180000000
7f8082817f000000
817f817f7e000000
80817f8080000000
8081817f81000000
8181818081000000
7f81807f80000000
808080807f000000
8181808081000000
80807f8081000000
80817f8082000000
81817f8081000000
817f818181000000
8181807f7f000000
7f81818180000000
7f80808080000000
7f80807f7f000000
81807f8080000000
8280818081000000
8080807e81000000
8081807f80000000
808181807f000000
7f7f7f8081000000
81817f8180000000
81817f8080000000
8081807f80000000
8081818181000000
8080818080000000
80807f8081000000
8181808081000000
80807f7f80000000
81817f8080000000
818181817f000000
8080818180000000
8081818180000000
80807f7e80000000
7f7f7f7e7f000000
808080817f000000
8081807f80000000
7f80817e80000000
7f80807f80000000
808080807f000000
7f807f807f000000
7f8081807f000000
7e80817f80000000
807e808081000000
7f80808180000000
807f807f80000000
7f807f8082000000
80807e8182000000
8181818082000000
807f81817f000000
8180828081000000
81807f7f81000000
8080807f7f000000
817f807f81000000
8080818080000000
8181818180000000
807f807f81000000
817f7f7e7f000000
8080808080000000
7f80808080000000
8180818181000000
8180807f7f000000
7f80808181000000
8080808180000000
7f7f807f81000000
82807f7f81000000
8081808081000000
8080808080000000
7f80808081000000
8080808181000000
8081808181000000
817f81817f000000
8181807f80000000
8180808080000000
8080808080000000
7f81818181000000
827f807f80000000
80817f8080000000
818180817f000000
8180817f80000000
8080808180000000
80817f8081000000
8081808180000000
81807f7f80000000
8281807f80000000
8081808080000000
8081808080000000
8080818181000000
8080818181000000
8081808080000000
82807f807f000000
827f807f7f000000
8181818081000000
8180828081000000
7f80818081000000
808080817f000000
8281818181000000
817f808083000000
7e7d7e8083000000
7e7d7d7d80000000
80807f7d80000000
7f80808180000000
817f7f8181000000
7f7f7e7e81000000
7f7e7f7f80000000
7f7e7f8080000000
818181807f000000
81807f8080000000
81817f807f000000
81807f8180000000
80807f807f000000
8080807f80000000
808081807f000000
8080818180000000
8180808180000000
80817f7e7f000000
8181808080000000
8180807e7f000000
807f807f80000000
7f80807f7f000000
7f81818080000000
82807f8081000000
8080808081000000
8080808281000000
81817f7f81000000
80827e7f80000000
7f80808081000000
80817f8080000000
7f7f7f7f80000000
807f7f8081000000
81807f8080000000
8081818283000000
7f80818282000000
7e7e7f8283000000
7f817f7f7f000000
8081817f81000000
7f80807e80000000
8080817f7e000000
818380807e000000
8381807f80000000
807e7f807f000000
807f7f8081000000
80807f7f80000000
807f808081000000
8081808080000000
81817f7f80000000
7f807f8080000000
807f808081000000
7f8180817f000000
8080807f80000000
8283817f7f000000
8180818081000000
81817f7f80000000
81807f7f81000000
81807f8180000000
8081808181000000
81817f7f81000000
807f7f8080000000
7f80818081000000
7f80807f81000000
80807f7f81000000
7f817f8081000000
8180818180000000
8081808180000000
8080808080000000
8181808181000000
8180808081000000
817f7f8080000000
81807f7f80000000
8080808181000000
807f818080000000
8080818180000000
8180818180000000
8180808080000000
7f7f808181000000
8080808081000000
8080808080000000
8080818080000000
807f818080000000
7f807f8181000000
7f81808080000000
7f807f8081000000
8181807f81000000
8080808080000000
7f80808182000000
808180807f000000
817f808180000000
818180807f000000
817f7f7f80000000
8080807f80000000
8180818080000000
8080818080000000
82807f7f80000000
81807f807f000000
8080807f81000000
8180808180000000
817f807f7e000000
7f80807f7f000000
817f818180000000
807f7f7f7e000000
8180808080000000
8082818080000000
8181808080000000
80807e817f000000
8080808180000000
7f8281817f000000
8180808181000000
80807f8080000000
8180807f81000000
8181808180000000
82807f8080000000
7f7f7f817f000000
807f7f8081000000
817f7f8181000000
7f80808080000000
8081808181000000
7f80807f80000000
807f7f8180000000
7f7f81817f000000
8181808181000000
7f807f7f80000000
82807f8181000000
8080807e7f000000
7f80818080000000
7f7f808080000000
7f81808081000000
807f7f8080000000
817f80807f000000
81807f7f7f000000
7f807f7f7f000000
7f80817f7f000000
807f80807f000000
7f7f817f81000000
7f7f808180000000
8081818080000000
808181807f000000
8180807f80000000
8181807f80000000
8080808181000000
807f7f8181000000
8180807f81000000
8382808180000000
817f808181000000
807f7f7f7f000000
817e7f7f81000000
807f7f807f000000
8381818081000000
8282818080000000
8081818180000000
808081807f000000
8080808180000000
8180807f81000000
8080807f7f000000
818080807f000000
8180808080000000
8081807f81000000
7f82817f80000000
7e81818080000000
7e82808080000000
8082828281000000
8182818081000000
80807f8080000000
7f7e807f80000000
80807e7f81000000
8180818081000000
7f80807f80000000
807f7f8181000000
817f807f81000000
81807f7f7f000000
807f808081000000
8081817f7f000000
827f7f7f82000000
8181807f7e000000
818081817f000000
807f808081000000
8081818081000000
7f80818180000000
8080808180000000
8081818080000000
7f81817f80000000
8081807f7f000000
8381808080000000
828280807f000000
8081807f80000000
8080808180000000
807f818081000000
817f7f8081000000
808080807f000000
8180808180000000
807f818080000000
8081817f7f000000
82837e8081000000
818180817f000000
7f8080807f000000
8081828181000000
83827f8181000000
8181808282000000
827f808281000000
82807f807f000000
807f7f7f80000000
807f807f80000000
807f7f8081000000
80807f8081000000
8080828181000000
808181807f000000
8181817f80000000
8181818180000000
808081807f000000
7f807f7f80000000
818181827f000000
8180828180000000
817f7f8180000000
807f7f7f80000000
7f7f7f8180000000
8080817f7f000000
8081808081000000
81817f8082000000
8080807e7f000000
7f81807e80000000
7f7f817f80000000
8080808081000000
807f808181000000
80807f817f000000
8180808081000000
8181808180000000
8181818080000000
7f80808080000000
807f7f8081000000
8081818182000000
7f81818081000000
8081818080000000
82807e7f80000000
817e808081000000
81807f7f80000000
7f80807f7f000000
8181807f80000000
8080818081000000
8080807f7f000000
808081817f000000
7f81807f80000000
8180817f7f000000
7f807f8081000000
8180807f80000000
8081808080000000
7f81808080000000
808280807f000000
80807f817f000000
817f807f80000000
807f807e7f000000
8180818081000000
8081808180000000
80807f8281000000
8280818080000000
82807e7f7e000000
7f80807e7f000000
7f8080817f000000
827f7f8081000000
818181807f000000
80807f7f81000000
7f7e808080000000
8080808081000000
82817f7f80000000
8181817f7f000000
81807f7f7f000000
81807f8180000000
8280808180000000
7e80808181000000
807f817f80000000
8082808080000000
7f81817f80000000
8081818281000000
8181808180000000
7f7f808180000000
8080807f80000000
8180807f7f000000
808081817f000000
818181807f000000
8180807f80000000
8181817f7f000000
818181807f000000
8180818080000000
7f81808081000000
81807f8081000000
8280817f80000000
8080808181000000
807e7f8181000000
8081807f81000000
8081807f7f000000
8180818080000000
817f7f8181000000
7f7e808180000000
8080817f80000000
8080808180000000
8080807f80000000
8080818080000000
8180818081000000
7f7f807f80000000
807f808181000000
7f80817f81000000
8180807f81000000
7f81808080000000
8080817f80000000
8181817f80000000
8081808081000000
807f808180000000
80807f8181000000
7f81818181000000
8080828081000000
817f808180000000
8180808080000000
7f807f8182000000
8082808081000000
7f80808181000000
8080808080000000
8180808080000000
81807f8180000000
7f81808080000000
828280807f000000
7f81818082000000
7e80817f81000000
807f7f7f80000000
808180807f000000
7f82808080000000
8081808180000000
7f7f817f7f000000
817f817f80000000
7e7f807f7f000000
7e80807f7f000000
7f80808081000000
8081808180000000
8080808081000000
7e7f80807e000000
807f818181000000
7f8081807f000000
818080807f000000
807e7f807f000000
8080808081000000
8180807f80000000
8080808080000000
80807f8080000000
7f7f80807f000000
8181808280000000
8080807f7f000000
82807f7f80000000
817f7e8080000000
8080807f81000000
7f80807f80000000
7f80808081000000
8180807f80000000
7f807f8080000000
817f7f7f7f000000
7e8182807f000000
7f8081817f000000
807f7e8181000000
807f7e7f82000000
7f81807f82000000
807f7e807f000000
7e7f807e7e000000
7f80807f7f000000
81807f7f82000000
80817f7f80000000
8180808180000000
8180807f80000000
7f7f7f8081000000
808081807f000000
8080808180000000
8080818180000000
7f80807f7f000000
7f8081807f000000
807f807f80000000
8080808080000000
8080817f80000000
7e7f808080000000
80807f807f000000
81817f7f80000000
808281807f000000
7f7f808081000000
80817f8180000000
8081807f80000000
827f807f81000000
7f807f8080000000
808080807f000000
80817f7f80000000
8080808081000000
7f7f818080000000
80817f8180000000
8181808081000000
807f808180000000
7f7f80807f000000
7f80817f80000000
817f80807f000000
7f807f7f7f000000
7f7f807e7e000000
7e80808081000000
7f7f7f8180000000
80807f7f81000000
7f80808080000000
7f7f808081000000
8081818080000000
818180807f000000
7f81808180000000
808180807f000000
7f807f8081000000
7f7f808081000000
818081817f000000
81817f8081000000
7e8180807f000000
7f80818080000000
7f7f7f8181000000
81817f807f000000
8080818180000000
7f807f807f000000
7f80807f80000000
7f80818081000000
7f80818081000000
8180808180000000
8080807f80000000
7f7f818080000000
81807f807f000000
7f80808181000000
81807f8181000000
7e7d7f807f000000
7e7f81807f000000
817f808180000000
7f80808181000000
8181808081000000
81827f8080000000
8081808081000000
8080807f80000000
808081807f000000
8080807f80000000
7f7e818282000000
807f808180000000
8081808180000000
7f80818080000000
80807f7f80000000
7e7f7f8181000000
80807f8181000000
8181808080000000
81817f8180000000
8180818080000000
7f7f807f81000000
827f807f7f000000
808181807f000000
818182827e000000
82817f8180000000
7f7f808080000000
7f807f8082000000
7f7f807f7f000000
818080807f000000
818081817e000000
7f7f7f8081000000
8180818180000000
8080818080000000
817f807f80000000
8080808081000000
7e7f818182000000
7f80808081000000
808080807e000000
818081817f000000
8180818181000000
80807f7f7f000000
7f80807e81000000
7f80808180000000
808080817f000000
82817f8080000000
8081808080000000
8181807f7e000000
8182827f7e000000
8080808280000000
8180808181000000
8080808080000000
807f7e7f7e000000
8180817f7e000000
807f81827f000000
8180808180000000
8080808180000000
7f80828081000000
8080828181000000
7f7f7e7e81000000
80807f7c7e000000
7f7f808080000000
7f7f818280000000
817f808081000000
8081807f80000000
8180807e7e000000
7f7f818080000000
807f7e8080000000
807f7f8180000000
808181807e000000
8280818080000000
8181807e80000000
8180807f80000000
7f81818080000000
817f818180000000
8180808281000000
7e7e808181000000
807f7f8081000000
81807f807f000000
818080807f000000
808081807f000000
817f7f807f000000
8281817e7f000000
8082828080000000
8181818182000000
8081808180000000
7f7f7f8180000000
7f807f7f80000000
7f81808180000000
7f8081807f000000
807f80807f000000
82827f8080000000
828383817d000000
7f81838480000000
8081808181000000
80817e7e82000000
8080818080000000
7e8080807f000000
7f7e7d7e81000000
7f807f8180000000
8181817f7f000000
807f818182000000
7f7f7f8081000000
81817f8080000000
8080807f7e000000
8080807f80000000
7f817f8282000000
818080807f000000
7f8181807f000000
8080808181000000
80807f7f80000000
8082818082000000
7f80818080000000
808081807f000000
807f7f807f000000
818080817f000000
808182807f000000
8281807f7f000000
8182827f80000000
8180818080000000
817f80807f000000
7e7e818182000000
7f7f7f8080000000
808080807f000000
7f817f8180000000
7f80808080000000
7f80818181000000
8080808080000000
817f807f7f000000
8180817f7f000000
7f81807f81000000
7f817f7f80000000
7e81808082000000
8081808181000000
807f808080000000
80807f817e000000
7e80808081000000
80817f8180000000
8180807f80000000
817f7f7e7f000000
80817f8080000000
8080818181000000
7f80808180000000
8080818080000000
8181817f7f000000
807f7f8080000000
7f7f7f7f81000000
7f81808182000000
7f7f808081000000
808080807f000000
808081807e000000
7e80807f80000000
7e80808180000000
7f7f808180000000
818180817f000000
817f817f7e000000
7f807f7f80000000
807f7e8080000000
80807f8080000000
8181808180000000
827f80807e000000
807e807f81000000
808080817f000000
807f80807f000000
81807f8080000000
8082808080000000
7f80808080000000
807f80807f000000
8181807f7f000000
8080807f7e000000
808181807f000000
817f818180000000
8081807f7f000000
807f80817f000000
8080818181000000
8081818180000000
8081818081000000
8081818180000000
8081818080000000
807f818080000000
808081817f000000
7f80808081000000
7f807f807f000000
7e807f8181000000
81827f8081000000
8281808080000000
7f817f7f81000000
7f7f80807f000000
807f808181000000
818180817f000000
81817f8180000000
807f7f8181000000
8080817f7f000000
7f807f7f81000000
80807f8080000000
807f808181000000
8080808080000000
807f7f8180000000
8081808082000000
7f80808181000000
7f807f7f80000000
7f807f7f7f000000
8080818080000000
7f81818080000000
81807f7f7f000000
7f7f7f7f7e000000
80807e807f000000
7f817f7f7f000000
8080818180000000
8180808081000000
81817f7f80000000
8080807f80000000
81817f7f80000000
7f807f807f000000
80807f8082000000
8180808081000000
7f82817f81000000
7e80818080000000
7f7e7f807f000000
8180807f7f000000
81807f7f7f000000
7e7f818081000000
7e7f818181000000
8080818180000000
80817f807e000000
818080807f000000
80807f8080000000
8181808180000000
7f807f8181000000
8081818180000000
7f7f808080000000
81817f7f80000000
7f817f807e000000
807f808080000000
807f808081000000
81817f7e7f000000
80817f8080000000
80817f8180000000
817f7f7f7f000000
8080807f81000000
807f80807f000000
808181817f000000
807f7f8080000000
7f80828181000000
8182807f7f000000
817f7f7e7e000000
818082817f000000
8081808080000000
7f817f807f000000
80807f7f81000000
807f808181000000
8081818080000000
7f7f818082000000
7f7f7f8082000000
7f80807e80000000
7f82807f7d000000
80817f807f000000
80807f8180000000
8080818182000000
80807f7f81000000
817f7f8080000000
7f7f80807f000000
807f7f8180000000
807f7f807f000000
817f7f827f000000
80807f8180000000
80817f7f80000000
8180807e81000000
8081817f80000000
8180808081000000
7f817f8080000000
8080818280000000
7f81818080000000
81817f8080000000
807f808181000000
807f7f8081000000
817f7f7f81000000
817f80817f000000
7f7f808382000000
8182808080000000
817f7f7e80000000
7f80818180000000
80817f807f000000
7f817f7f80000000
817f808081000000
81807f8080000000
8081808081000000
8080808180000000
807f7f8081000000
807f808081000000
807f7f8080000000
7f80808080000000
7f80808080000000
8180808180000000
7f7f7f8080000000
807f808080000000
8080808080000000
807f7f8081000000
80807f817f000000
8180808180000000
8180818181000000
7f81818081000000
81817f807f000000
807f7f807f000000
80807f8180000000
8181818080000000
7f81808180000000
80817f8180000000
7f81807f81000000
8080808080000000
7f81808080000000
80807f7f81000000
7f7f808081000000
7f7f7f8081000000
8080818182000000
8181808080000000
7f80808080000000
8081818080000000
8081818181000000
8080808181000000
7f807f7f80000000
7f8081817f000000
808080807f000000
817f807f80000000
7f81827f81000000
7f8281807f000000
8081808081000000
81807f8280000000
807f818080000000
7f8080807f000000
807f7e7f7f000000
807f818181000000
8080807f80000000
807f80807f000000
807f808180000000
7f80807f80000000
817f7f8181000000
7f807f8181000000
807f807f80000000
807f808181000000
81807f8180000000
8081818180000000
81817f7f7f000000
817e80807f000000
807f7f8080000000
8080817e7f000000
817f7f8081000000
8080808081000000
807f7f7f7f000000
7f807f8180000000
8080808181000000
818180817f000000
807f7f8081000000
817f818081000000
807f807f80000000
817f807f7f000000
818080807f000000
8080818080000000
7f7f808081000000
7f7f808080000000
818081807f000000
80807f7e7e000000
80807f7f80000000
807f807f7f000000
7f81807f80000000
7f7f818180000000
8180817f80000000
80817f807e000000
817e7f8080000000
7f807f7f80000000
8081807f80000000
8081818181000000
8080807f80000000
817f80807f000000
807e7f7f7f000000
807f807f7f000000
82817f7e7f000000
8183817d7e000000
818282817f000000
8082807f81000000
8082818182000000
7f80807f80000000
8081818280000000
8182828080000000
8181818080000000
7f80818182000000
818180807f000000
8181818080000000
8081807f7f000000
8080808181000000
7e7f80807f000000
81817f8080000000
828081807e000000
807f807f7e000000
7f7e7f8180000000
81807f8080000000
817f7f8081000000
808181807f000000
8180808180000000
8181808181000000
7f7f7f817f000000
808281807f000000
7f81807e7f000000
807f807f7f000000
817f807f7e000000
8081807f80000000
807f7f8081000000
8081808181000000
8080817f7f000000
7f7f7f8181000000
807f808081000000
7e8181817e000000
7f7f7f807f000000
80807f8181000000
807f7e827f000000
81817f8081000000
8180808180000000
83817f817f000000
827f7f8080000000
8180807f7e000000
7f7f7f8081000000
7f80818080000000
8080807f81000000
7f80808180000000
7f80808181000000
7f81818080000000
808081807f000000
808081807f000000
807f808081000000
80807f7f7f000000
80817f807e000000
808081817f000000
8181808181000000
807f818081000000
8081818181000000
7f7f808080000000
81817f7f81000000
80807f7f81000000
8081808180000000
80807f8080000000
817f807f7f000000
8180808080000000
8181808180000000
8080818080000000
818080817f000000
8181817f7e000000
8080818080000000
7f80817f81000000
7f80808082000000
8080807f80000000
8080807f80000000
81807f7f7e000000
8080818180000000
8181807f7f000000
7f81808080000000
807f808181000000
818180807f000000
8080818080000000
7f80808081000000
7f80818081000000
817f807f7f000000
7f80808080000000
8182818180000000
8081817f7f000000
7f80808081000000
80807f807f000000
8180807f7f000000
8080818080000000
8080817f7f000000
7f81818081000000
8080808081000000
817f7f7e7f000000
8181807f7f000000
82807f7f7f000000
7f807f807f000000
7f7f808080000000
8180808180000000
8180807f7f000000
817f807f80000000
7f7f7f7f80000000
807f80807f000000
7f7f808181000000
7f7f80817f000000
8080807f80000000
807f807f80000000
817f7f7f7f000000
7f80807f80000000
8180818080000000
8080818081000000
8081818081000000
80817f7f81000000
807f7f817f000000
818180807f000000
807f808081000000
817f807f7f000000
7f7f7f8080000000
7f807f817f000000
7f8080807f000000
8180808181000000
817f807f81000000
817f7f7f7f000000
81807f8081000000
808280817f000000
7f80807f7f000000
8182807f7d000000
8180818081000000
807f81817f000000
81807f8081000000
8180808080000000
8181817f7f000000
8181807f80000000
80817f817f000000
8180818180000000
8281817f80000000
8082808081000000
8181808080000000
807f7f807f000000
8080817f81000000
807f818180000000
8181807f7f000000
808181807f000000
7f80818180000000
8080808080000000
7f7f807f80000000
8080808181000000
8180818081000000
7f807f8180000000
808181817f000000
81817f7e7f000000
8080818080000000
8180818180000000
7f7f7f8081000000
7f807f7f7f000000
80817f7f7e000000
80817f7f7f000000
8181818181000000
7e80807f7f000000
807e807f80000000
817f818081000000
81827f8182000000
8183807f81000000
8080808180000000
7f7f808080000000
7f817f8181000000
8080808081000000
8080807e80000000
817f7f8080000000
81807f8081000000
8181808080000000
8180817f7f000000
8180808080000000
817f7f8080000000
80807f7f81000000
8080808080000000
8080807f7e000000
8180808180000000
7f80808181000000
80807f817f000000
81817f8080000000
7f8180807f000000
81817f817f000000
81807f8182000000
8080827f80000000
80807e7d7e000000
7f80808081000000
8180818081000000
7f80808181000000
81817f8080000000
7f7f808081000000
807f807f7f000000
8181817f7f000000
807f7f7e81000000
827f80817f000000
7f8081807e000000
8080818281000000
827f808282000000
808081827f000000
817f80807e000000
7f7f7f8081000000
7f7f7e8182000000
7f7f807f7f000000
7f80818181000000
817f817f81000000
8080807f80000000
8281808080000000
807f807f7d000000
80807f8181000000
8180818180000000
8080808081000000
80807f817f000000
8181808282000000
82817f807f000000
81807f7f7f000000
7f7f7f7f80000000
7f807f7f7e000000
818080807f000000
807f7f8181000000
7f80808180000000
7f817f7f7f000000
8180807e7e000000
8081818081000000
807f7f8081000000
8080817f81000000
818180807f000000
8080808080000000
8080807f7f000000
8080808080000000
8180808081000000
808080807f000000
8181807f80000000
8080807f81000000
807f81807f000000
7f807f7f7f000000
7f7f808080000000
8181808080000000
8080807e7e000000
7f80818081000000
8181807f81000000
818081807f000000
8080817f7e000000
7f807f8180000000
8180808080000000
8181808081000000
7f7f817f81000000
82807f7f7e000000
807f81807f000000
7f81818080000000
7f7f808180000000
8080808080000000
80817f807f000000
8180807f80000000
808080817e000000
817f7e8080000000
7f7f808180000000
7f8081817f000000
81817f7e7e000000
80807f8081000000
8082817f80000000
8181807f80000000
8080808080000000
8180828181000000
80817f7f81000000
80807f7f80000000
8081818081000000
8281828180000000
8181808081000000
817f7f8080000000
81807f7f80000000
8181817f80000000
81817e7f7f000000
8181807e80000000
80817f8180000000
8080808180000000
807f81817f000000
807f808080000000
7f8081807f000000
7f7f7f7f7f000000
8080808081000000
808180807f000000
7f7f808080000000
818080807f000000
7f80807f7f000000
8081817f7f000000
818180807f000000
81807f807f000000
807f80807e000000
807f807f81000000
807f807f80000000
7f81818080000000
8081817f7f000000
808181817f000000
80807f8081000000
8081818180000000
80817f8180000000
8081818180000000
8081828180000000
7f80808080000000
7f7f808080000000
7f81808080000000
81807f8081000000
81817f8180000000
8080807e7f000000
7e7f7f8080000000
7e7f7f7f81000000
7f7f817f7f000000
7f80807e7e000000
7f8081817f000000
7e81808080000000
8181817f80000000
80817f7f7f000000
7e7f81807f000000
8080818180000000
8081818080000000
7f81808181000000
8180808081000000
8080828181000000
7f7f818081000000
7f817f817f000000
8182818180000000
80827f8081000000
80807f8081000000
807f808180000000
818281807f000000
808080807f000000
817f7f7f80000000
8080807e81000000
7f80817f80000000
8080818180000000
7f7f808081000000
8181817f7f000000
8181817f7f000000
7f80807f80000000
8080818081000000
7f81808182000000
7f7f818080000000
7f7f807f80000000
7f80808081000000
7f7f808080000000
8080818181000000
80807f807f000000
8080808080000000
7e80828180000000
7f7f808080000000
8080807e7f000000
8181807f80000000
7f7f7f7e7f000000
8180817f7f000000
7f7f818180000000
7e7f80817f000000
7f817f7f80000000
8080807f80000000
7e8183827f000000
7e7f81817f000000
7f807e7f7d000000
7f7e7f807f000000
807f7e8181000000
7f7f7f7e80000000
7f7e7f7e81000000
7e7e807f81000000
7f7f807f7e000000
808080807f000000
8280807f7f000000
8081818080000000
8180808182000000
8080807f80000000
8080818081000000
7e7f828180000000
7f7e7f8180000000
7f807f7f81000000
807f7f7f7f000000
7f7e7f807f000000
8180818180000000
8180808180000000
7f80828181000000
80807f7f81000000
8180828180000000
7f7f808281000000
7f81818280000000
808080807f000000
8380807e7e000000
8081807e7e000000
8080807f81000000
80807f8080000000
7f7f818080000000
7f8081817f000000
8080807f80000000
81807f8180000000
817f818180000000
8180808181000000
8181808080000000
808081807f000000
8081807f80000000
81817f807f000000
8080818181000000
7f7f818080000000
8081818081000000
8180808181000000
807f818280000000
8081818080000000
8081817f81000000
8181818081000000
8181818180000000
8181818081000000
7e7f818180000000
808181807f000000
7f8180817f000000
80807f8080000000
808080817f000000
7f80808080000000
807f818080000000
8080818181000000
80807e7f80000000
7e807f7f80000000
7f80808080000000
7f817f8080000000
7f81818080000000
7f80807f80000000
7f807f7f80000000
7f7f807f80000000
7f7f7f817f000000
7f81808080000000
7e80818081000000
7f80818181000000
7e7f7f807f000000
807f81807e000000
8181808080000000
8081818080000000
808281817f000000
7f81808081000000
7f807f807f000000
808281807f000000
7f7f80817f000000
807f80807f000000
7f7f818180000000
8080828181000000
7f81808181000000
81807f817f000000
8080808180000000
8081818081000000
8181808181000000
8080818181000000
818080817f000000
817f7f8282000000
807f808080000000
8080808081000000
80817f8180000000
807f7f7f81000000
7f7f7f8080000000
8180817f80000000
7f7f7f7f80000000
8081818181000000
7f7f7f817f000000
7f7f808080000000
8081808180000000
807f81827f000000
7f80818080000000
7f8080817f000000
8081808080000000
8081808080000000
7f80818081000000
8081818080000000
8181808081000000
8180808281000000
807f80807f000000
8181808180000000
8081818180000000
8081818080000000
8080808180000000
7f7f808280000000
7f7f807f81000000
81807f8080000000
817f817f80000000
817f81807f000000
818081817f000000
7f7f808081000000
7f7f7f8080000000
8183817f81000000
7f81817e81000000
7e7f7f7e7f000000
82807f7e80000000
8381817e7e000000
8080807e80000000
8081818080000000
7f7f808080000000
8181818181000000
8182808081000000
817f808180000000
80817f817f000000
818081807f000000
818181817f000000
7f7f7f8181000000
8180808180000000
807f7f8181000000
7f7f7f8280000000
7f80808080000000
8080808080000000
808081807f000000
7f8081817f000000
7f7f807f81000000
8181828180000000
8081818182000000
80817f7e7f000000
8183818182000000
7f807f7f81000000
8080808181000000
7f80808081000000
8181808080000000
7f8180807f000000
807f818180000000
8081828080000000
808080807f000000
8180808183000000
8182828183000000
7e7f7f7e80000000
7e81807f80000000
80827f7f80000000
80807f7e80000000
828280817f000000
81827f817e000000
808181817e000000
7f7e808180000000
807f81807f000000
7f80808080000000
8081807f80000000
8181828081000000
8081818080000000
807f80817f000000
8080808081000000
7f80807f80000000
7f80807f7f000000
7f807f7f80000000
808180807f000000
7f7f7f7f7f000000
8080817f7e000000
7e80807f7f000000
807f7f8181000000
808080807f000000
8082807f80000000
7f82808080000000
8080818082000000
807f7f8181000000
8081807f80000000
8081808080000000
8181818080000000
817f828080000000
7f80818180000000
808181807f000000
8080807f7f000000
8181817f80000000
8081808081000000
8180818180000000
80817f8180000000
807f80807f000000
807f80807f000000
7f7f80807e000000
7f817f817f000000
808080807f000000
807f80817f000000
807f818081000000
7f80818181000000
7f7f808180000000
8181807f80000000
8181808181000000
818180807f000000
8081818080000000
7f7f817f80000000
80817f7f80000000
8081807f7f000000
7f7f80817f000000
8080818180000000
8081808281000000
80817f8080000000
8180808180000000
807f80807f000000
81807f8080000000
7f817f8080000000
8180808080000000
807f818380000000
80807f8280000000
807f808181000000
808080817f000000
7f8180827f000000
80807f8181000000
7f807f8080000000
81807f8180000000
7f817f8180000000
7f80817e7e000000
8080807f80000000
8181807f7f000000
8082827f81000000
8081818080000000
807f808080000000
8080807f80000000
7f81818081000000
80817f8181000000
80807f7f80000000
7f7f808080000000
8180808080000000
8180818080000000
7f7f818180000000
7f807f7f7f000000
8180817f80000000
80817f7f80000000
7f81808080000000
817f7e7f7f000000
81817f8080000000
8080818180000000
8180817f7f000000
8181817f7f000000
8181807f80000000
8080808180000000
808081817f000000
8080818080000000
8081818180000000
7f80818080000000
7f80807f80000000
7f8081807f000000
817f80807e000000
8080808181000000
817f808080000000
7f7f807f80000000
8181808080000000
81807f8181000000
807f807e80000000
7f8080807f000000
7f81808182000000
7f80807f7f000000
7f7f7f8080000000
7f81808082000000
81807f8081000000
817f7f8181000000
8080808080000000
7f81808080000000
7f80818081000000
8080808080000000
808080817f000000
7f8180817f000000
7e807f8182000000
8080808080000000
7e80808180000000
8080818482000000
808081807e000000
807f80807f000000
80807f7e7f000000
818181817f000000
7f81808181000000
807f818080000000
818180817f000000
7f8081807f000000
7f7f7f8181000000
817f7f807f000000
8180808081000000
7f80808080000000
7f81808081000000
8080807f80000000
817f807f80000000
807f80807f000000
80807f8081000000
8080808081000000
7f7f808180000000
8080807f80000000
8081808081000000
7e80808081000000
7e7e808081000000
807e7f8080000000
7f7f818081000000
80807f8181000000
8080817f80000000
8080808181000000
8080818080000000
7f80807f80000000
7f7f808181000000
7b7e808282000000
7c7d7f8081000000
82807f8081000000
8181808082000000
7d7e808282000000
80807f8082000000
80807f7f80000000
807f7f7f7e000000
807e7f807f000000
8081807f7f000000
8080808080000000
7f80818180000000
8080808080000000
808180817f000000
80807f8080000000
7f80807f81000000
7f80807f81000000
827f7e7f80000000
8081808082000000
817f808281000000
8080808080000000
7f7f808081000000
8080818180000000
818180817f000000
7f80808180000000
8181817e7f000000
7f81807f7f000000
7f7f7f7f80000000
807f7e8080000000
7f807f8080000000
8080817f81000000
80807f8180000000
8081808080000000
81807f7f7f000000
7f8181817f000000
8180808080000000
7f81818180000000
7f807f807f000000
8080808081000000
8080818280000000
7f8180817f000000
8081807f7f000000
8080808081000000
808180827f000000
818180807f000000
8080817f7f000000
8180817f7f000000
8181818081000000
808180807f000000
8181808180000000
8081808080000000
7f8081817f000000
8081808081000000
7f7f7f807f000000
817f818180000000
8181807f80000000
7f81817f7f000000
7f80818081000000
8081808081000000
8181818181000000
8181808280000000
818080807f000000
81807f7f7e000000
8080808180000000
8080808080000000
817f808081000000
817f7f8080000000
8180808080000000
8080807e81000000
807f818180000000
7f7f808080000000
807f807f80000000
8080808080000000
7f80807f80000000
8080808180000000
7f8081807f000000
8080818181000000
8080808080000000
807f7f8180000000
807f808181000000
8181818081000000
7f807f7f80000000
8181807f80000000
817f7f7f81000000
808181817f000000
8081818081000000
808180807f000000
817f81807f000000
81817f807f000000
8080808181000000
808081807f000000
8281818080000000
8181808080000000
7f80808080000000
8080808181000000
8181808080000000
8080828180000000
7f81808081000000
817f808081000000
7f80818081000000
8080808080000000
8080808181000000
817f807f80000000
80807f8081000000
7f81808081000000
818080807f000000
81817f8181000000
807f807f7f000000
80807f8080000000
817f7f8080000000
807f818181000000
7f7e808180000000
7f80828181000000
8081818080000000
8181818180000000
8081817f80000000
8180807f7f000000
8081807f80000000
7e7f808081000000
8081818181000000
8080817f7f000000
817f80807f000000
80807f8081000000
80807f7f81000000
7e7e7f7f7f000000
80807f817e000000
8181808181000000
8080818281000000
8080808381000000
7f81808080000000
817f808081000000
7f8180817f000000
7f81828281000000
8080818180000000
8181808180000000
807f80807f000000
8080818081000000
8081808080000000
8080807f7f000000
8082818080000000
8080807f7f000000
8180808080000000
8182808081000000
8080808180000000
7f807f8081000000
808080817f000000
8181818080000000
8080808080000000
8180808080000000
80807f8180000000
7f7f807f80000000
7f80808180000000
8080817f7f000000
7f80808080000000
818081817f000000
8180808181000000
8180818080000000
7f7f808181000000
807f7f8081000000
7f81808080000000
8184827f7f000000
818082807e000000
808082817f000000
7e7e828180000000
81817f7f7f000000
7f7f7f7f81000000
7e7d7f7f80000000
7f80807f7f000000
81827f8081000000
8080818180000000
818280817f000000
8180818080000000
818080817f000000
807f808080000000
81807f7f80000000
8181817f80000000
7f80807f81000000
7e807e8080000000
7f7e7f7e81000000
817f808081000000
807f807f81000000
8181817f80000000
82807f7e7f000000
817f7f8080000000
7f80808180000000
7f7e807f80000000
8180808180000000
8080818180000000
7e80818180000000
8080818180000000
8080808081000000
807f7f8080000000
7f81807f7f000000
817f808080000000
807f7f7f7f000000
7f81818080000000
817f817f7f000000
8180808180000000
81807f8181000000
818080817f000000
807f808080000000
8081818180000000
8180808181000000
80817f8181000000
7f7f808081000000
7f81818081000000
8080807f81000000
807f7e807f000000
807e7e807f000000
8181818180000000
8081818180000000
8181808080000000
8080808180000000
7e80808181000000
8080807f81000000
7f80818181000000
7f81808180000000
8181807f80000000
807f808081000000
81807f8180000000
807f7f7f80000000
7f80818080000000
8081818280000000
81807f8080000000
8081817f7f000000
7f7f7f8081000000
7f8181807f000000
7f81817f80000000
80817f7f80000000
8181808181000000
818081817f000000
8182808081000000
7f80808180000000
7f7f7f7f80000000
7f80808081000000
7e7f808081000000
8080808080000000
7f80808182000000
7f80808081000000
7f807f7f81000000
8081817f7f000000
817f80807f000000
7f80818080000000
7f7f808080000000
7f80808181000000
80807f807f000000
80807f817f000000
7f8180807f000000
7f8080807f000000
818181807f000000
8081808181000000
8180808281000000
7e807f7e7f000000
7f7e80807f000000
8181807f81000000
7f80818182000000
8180818182000000
8080817f80000000
807f7f807f000000
7f80818082000000
807f807f81000000
807f818080000000
807f81807f000000
80807f807f000000
8181818080000000
8080808081000000
8180817f81000000
7f807f8080000000
80807f8081000000
8081828081000000
7f81818181000000
8181818080000000
7f7f807f80000000
8180807f7f000000
818081817f000000
808082817f000000
817f808080000000
7e7e7f7e80000000
7e80808081000000
8081807f7f000000
8081817f80000000
8180818080000000
7f7f808080000000
8080817f80000000
83817f8181000000
7f81828182000000
7f81818180000000
7f80818080000000
807e7f8081000000
8181808182000000
8081828281000000
7f8180807f000000
8081818180000000
8181818181000000
8181807f81000000
807f818080000000
80807f8180000000
8081818080000000
817f7f7f7f000000
80817f807f000000
817f808180000000
8181808082000000
7f7f808080000000
7d807f7f81000000
8081808080000000
8080807f7f000000
8080818180000000
808080817f000000
817f80807f000000
7f8183807f000000
7f81817f80000000
7f8080817f000000
7f807f7f80000000
8180818081000000
7f81807e7f000000
807f7f807e000000
7f80807f7f000000
7f81817f81000000
807f808080000000
8180828380000000
8082828282000000
7e82828282000000
7f8080807e000000
8080808182000000
7f807f8181000000
7f80807e80000000
7f7f808181000000
81817f8080000000
817f80807f000000
7f7f808081000000
808181817f000000
817f81807f000000
817f81817f000000
7f807f807f000000
8180818080000000
8081818081000000
80817f7f81000000
80807e7f7f000000
8080818182000000
7f7f817f80000000
807f7f807f000000
818081807f000000
818080817f000000
818081807f000000
81817f807f000000
7f8180817f000000
8080808181000000
80807e8080000000
817f7f8080000000
7f8181807f000000
8181807f80000000
80807f807f000000
8180818180000000
7f80818181000000
817f7f7f80000000
7f7f7f7f7f000000
7f80818081000000
8180818081000000
817f818080000000
8081817f7f000000
7f807f807f000000
817f808081000000
807f818280000000
7f7f817f7f000000
81817f7f81000000
8081807f80000000
807f7f7f80000000
8080808081000000
8180807f80000000
818181807f000000
807f807f80000000
8180818180000000
7f81808080000000
7f7f7f807f000000
81807f8081000000
80807f8181000000
807f808081000000
8081818081000000
8080807f80000000
81817f7e81000000
8280818080000000
807f808081000000
807f818080000000
7f7f7f7f80000000
8181808180000000
817f818181000000
7f8080817f000000
7f80808080000000
8080807f80000000
807f82807f000000
8181808180000000
80817f8080000000
8080818081000000
80817f8181000000
7f817e7f7f000000
807f81817e000000
8181808080000000
8080808081000000
807f808081000000
8181808080000000
8080818180000000
7f7f7f8180000000
8181807f81000000
8180817f80000000
7f807f807f000000
8080818180000000
81807f807f000000
7f80817f7f000000
8180808080000000
81807f8080000000
807f7f807e000000
81807f7f7f000000
7f80808081000000
7e7e808181000000
80807f8080000000
817f80807f000000
7f7f7f7f7f000000
7f817f7f80000000
7f80808081000000
807f7f807e000000
7f7f807f7f000000
8080807f80000000
807f807f80000000
81807f7f80000000
817f807f80000000
7f80807f80000000
7f817f8081000000
81817f8081000000
807f808082000000
7f8180817f000000
7f80808080000000
7f807f8081000000
7f8081827f000000
80817f8080000000
817f807e7f000000
8080807f7f000000
81817f8080000000
8080818080000000
7e7e808181000000
80817f7e7f000000
807f807f80000000
8080818080000000
817f80807f000000
7f80808182000000
7f7f807f7e000000
80807f7e7e000000
818181807f000000
7f81808183000000
80807f8082000000
817f818180000000
80807f8081000000
8080807f7f000000
8080818182000000
7f80807f80000000
8080808081000000
807f807f80000000
7e80807f80000000
8080817f80000000
8181808180000000
80807f8080000000
7f807f7f7f000000
7f7f7f817f000000
8080817f7f000000
8080818181000000
80807f7f7f000000
8081818080000000
8080818180000000
8180807f80000000
8181808081000000
7f7f807e7f000000
7f807f7f81000000
8181817f81000000
807f7f8282000000
807e7f8180000000
807f808180000000
808181807f000000
8081807f81000000
8180818181000000
7f7f81817f000000
7f81817e7e000000
7f7f7f807f000000
8082818180000000
807f7f8283000000
7f7d7f817f000000
7f817f7f81000000
8080808182000000
7f80818180000000
8081807f7f000000
8082807f7e000000
817f7e807f000000
817f7f807f000000
807f7f807f000000
7f80818081000000
7f80808081000000
8080807f7f000000
7e807f7f7f000000
7f807f7f7f000000
7f80818182000000
7f7e7f8081000000
8081808181000000
8081818181000000
80807f8081000000
8280808080000000
817f7f7f80000000
80807f7e7f000000
80817f7f81000000
80817f8181000000
7f817f8181000000
7e7f808283000000
7f80818080000000
8081808180000000
817f818180000000
8181817f80000000
81807f8081000000
818081807e000000
8181818081000000
7f81818181000000
8080808080000000
8180807f80000000
7f80808180000000
7f80807f80000000
807f80807f000000
808280807f000000
81807f8081000000
8081807f80000000
7f80807f7f000000
8080808181000000
8181807f80000000
80807f8180000000
8180808180000000
817f817f80000000
8081817f7f000000
818080807f000000
8080818180000000
8181808180000000
8181808080000000
808180817f000000
7f80807f80000000
80807f7f80000000
7f7e808181000000
7f817f7f7f000000
7f8180807e000000
81817f807f000000
8080818080000000
807f7f8081000000
7f80808081000000
807f7f8180000000
7f8181807f000000
7f80808081000000
7e80817f80000000
8080817f80000000
8080818080000000
807f808080000000
807f7f807f000000
81807f807f000000
8180808181000000
8081808180000000
8080807f7f000000
7f80818080000000
81807f7f7e000000
8181818080000000
80807f8080000000
7f807f7f7f000000
8080807f7f000000
8080817f80000000
7f81808080000000
808080807f000000
807f7f7f80000000
7f7f7f7f80000000
80807f807f000000
7f807f7f81000000
817f808080000000
8080808180000000
818181817d000000
8080817f80000000
807f807f80000000
8081808080000000
8080808180000000
8081818081000000
818180807f000000
81817f817f000000
7f8180807f000000
8081818280000000
817f818080000000
807f808180000000
8181818080000000
818080807f000000
7f80808180000000
808081807f000000
807f818180000000
807f80807f000000
8081807f80000000
81817f8180000000
8080808080000000
818182827f000000
807e807f80000000
80807f7f80000000
7f81808180000000
7f8182807e000000
8180807f7f000000
8081807f80000000
817f808080000000
7f7f7f8181000000
808082817f000000
8180818181000000
7f7f808180000000
7f807f7f80000000
807e807e7d000000
80807f807d000000
8080808181000000
7f8081807f000000
7f7f818181000000
8281828080000000
80807f817f000000
7f81817f80000000
7f807f7f80000000
7f80808080000000
8180817f81000000
7f81808281000000
808180807f000000
808081817f000000
817f7f807f000000
80807d8081000000
7e7f7f7f81000000
8081808080000000
80807f8180000000
808081807f000000
80807f7f80000000
80807f8081000000
8081818080000000
81817f8082000000
8181808081000000
7e80818181000000
8180818180000000
807f81817f000000
818080817f000000
8181818080000000
807f7f7f80000000
7e80808081000000
817f818283000000
8180807e82000000
7f80807e81000000
7f7f80807f000000
807e7f8080000000
7f80807e7f000000
8180807f80000000
7f7f818181000000
8082818180000000
8180808081000000
81817f7f7f000000
807f818180000000
807f7f807f000000
7f80808181000000
8080808080000000
8080808081000000
827f7f7f7f000000
81817e7e7f000000
807f7f8080000000
7f7f80807f000000
80807f817f000000
8080808180000000
8080808080000000
80807f8080000000
7e80818081000000
7f81808081000000
7e80818182000000
7f80808182000000
7f80838180000000
808281807e000000
8081818080000000
8081808080000000
8180818080000000
7f7f7f807f000000
807f808181000000
817f808080000000
8081808180000000
8181818181000000
8080818180000000
7f81818081000000
8181817f7f000000
818081807f000000
8080808080000000
8182808180000000
8080818181000000
80817f7f80000000
8180808080000000
807f7f817f000000
7f80808180000000
7f7f818180000000
818080807f000000
807f818180000000
818080817f000000
807f807f81000000
7f81818280000000
818180807f000000
8081808080000000
8180817f80000000
8180818180000000
8180808081000000
7f7f80807f000000
807f7f8080000000
817f808180000000
8180808181000000
81817f8180000000
81807f8181000000
807f808080000000
81817f7f80000000
807f807f80000000
81807f8081000000
818080807f000000
807f807f7f000000
80817f8180000000
807f808180000000
7e80808282000000
7f80818180000000
7f80818081000000
8081808181000000
817f818180000000
8081808081000000
8180808180000000
8081817f80000000
807f818080000000
807f818080000000
818080807e000000
80807f7f7f000000
807f7f8181000000
7f807f8180000000
7f7f807f81000000
8180808080000000
818081807e000000
807f807f81000000
8182807e80000000
8181817f7e000000
8081808180000000
8181817f7f000000
8180817f7f000000
8081818080000000
8182817f81000000
818181807f000000
807f807f80000000
8080818181000000
807f808180000000
81807f8080000000
8080808080000000
8080808080000000
8080818180000000
80817f8080000000
80817f7f81000000
807f818080000000
80817f8080000000
7f817f8081000000
8081817f7e000000
818081807f000000
8080817f80000000
7f807f817f000000
8081807f82000000
81817e7e81000000
808181817f000000
7f80808080000000
8082817f7f000000
7f80808181000000
7f7f807f81000000
7f8181807e000000
7f8081817f000000
7f7f80817e000000
8180808081000000
8180808180000000
8180818182000000
817f808081000000
7f80807f80000000
8080808080000000
8181817f80000000
8180818280000000
8081808081000000
808180817f000000
7f81818080000000
7f807f8181000000
7f80817f81000000
7f81808180000000
8081808080000000
80807f817f000000
7f807f7f80000000
7f8180807f000000
8080828081000000
807f808181000000
80807f8180000000
7f80818080000000
7f7f7f7f80000000
8080807f7e000000
7e80807e7f000000
7f7f7f7e80000000
8181807e7e000000
7f8181807f000000
807f828180000000
8181808181000000
7f7f818180000000
7e80818081000000
8080808081000000
8081807f7f000000
7d7e807f7e000000
807f7f8080000000
808182817e000000
7e8081827f000000
8080818180000000
807f808181000000
8081818181000000
8080818181000000
7f7f817f80000000
807f807f81000000
8180818181000000
8180808080000000
7f7f7f8082000000
8081807f80000000
8080807e7f000000
7f80807f80000000
8080808082000000
7f80808181000000
7f7f807f80000000
7e7e808080000000
7f80808180000000
818080827f000000
7f80808181000000
7f7f80817f000000
7f7f81817f000000
7e7f80807e000000
7f81817f7f000000
7f81807f7f000000
82817f7f7f000000
7f81807f7f000000
8080808081000000
807f7f817f000000
807f807f81000000
807f808080000000
8080808180000000
8180808181000000
8081808080000000
807f7f8080000000
807f80817f000000
81807f7f7f000000
80827f8080000000
808180807f000000
8081818180000000
7f8081817f000000
8081828181000000
7f80808180000000
7f7f7f7f80000000
7f7f7f8181000000
81807f7f81000000
81817f7e80000000
7f80818081000000
808081807f000000
8080808080000000
80807f7f7f000000
808081807f000000
818080807f000000
7f807f7f7f000000
7f80817f7f000000
8080818180000000
7f807f8080000000
81807f7f81000000
8181807f80000000
81807f7f80000000
8080818080000000
8181807f80000000
8182807f80000000
80807f8081000000
808181807f000000
8080807f81000000
7f80818080000000
8181808080000000
7f7f808180000000
7e8080807f000000
8081808180000000
7f7f7f7f7f000000
807f81807f000000
807f828080000000
7f807f8081000000
8181807f7f000000
807f7f817e000000
7f81807f80000000
7f7f81807f000000
7f807f7f80000000
80817f7f80000000
8081818281000000
7f81817f81000000
7e817f7e7f000000
817f7f8080000000
7f817f7f80000000
8181817f80000000
7f7e80817e000000
7f7e7e7f81000000
817f808180000000
8180818281000000
7f80808081000000
8080807f7e000000
807f807f7f000000
8080807f80000000
8080808081000000
807f808080000000
7f80807e80000000
7f7f807f7f000000
8080807f80000000
7f7f80817f000000
8182818181000000
7f7f81817f000000
7f807f7f7f000000
80807f7f7f000000
8081808081000000
7f81818081000000
8280818081000000
817f818180000000
808181807f000000
7f80818081000000
80807f7e7f000000
818180807f000000
817e7f8080000000
8180808080000000
8080808180000000
7f81817f80000000
7f7f80807f000000
7f80808081000000
80807f7f80000000
8081818080000000
7f80818181000000
8182808081000000
8183818080000000
7f82838182000000
807d808183000000
8280807f80000000
81817f8181000000
7f81807f7f000000
7f7f808281000000
807d808182000000
8280818080000000
7f80807f80000000
7e7f81817f000000
807f80807f000000
7f81808080000000
8081807f81000000
8081817f80000000
807f808281000000
827f7f7f80000000
8281808080000000
7d80807f80000000
8181807f7f000000
7f807f7f7f000000
817f7f7f81000000
8280808081000000
8182818182000000
80807f8080000000
827f7e7f82000000
8182828180000000
7f80818180000000
7f7f7f8081000000
7f81808080000000
807f807f7f000000
807f808080000000
817f7f8180000000
8181808180000000
8281817d80000000
848481817f000000
8185838284000000
7e80808383000000
817c7e7c80000000
8182808281000000
7f7f808080000000
8180807f7f000000
80807d7f80000000
80807f7f7f000000
80807f7e7f000000
7f8181807e000000
8180817f81000000
807f807f7f000000
8180808180000000
8080818180000000
80807f8081000000
8081807f81000000
7f81817f81000000
7e7f807f80000000
8080808080000000
7f807f8081000000
7f7e807f7f000000
7f817f817f000000
7e80808180000000
7f7f7f7e7f000000
817f7f8182000000
8280818083000000
8280808280000000
817f808182000000
81807f8080000000
808181807f000000
817f7f7e80000000
8081817f81000000
8082808181000000
8080807f80000000
8081808080000000
817f7f7f81000000
817f7f8080000000
8081818180000000
818180807f000000
8080817f7f000000
8180808181000000
80807e7f80000000
7f81808080000000
7f7e7e7f80000000
8080807f7f000000
817f7e7e81000000
8180808081000000
8080808082000000
80817f7f80000000
80817f8281000000
807f7f7f80000000
807f808080000000
7f7f808080000000
8181807f80000000
807f81807f000000
81807f8080000000
80807f7f7f000000
8080818080000000
8181818080000000
7f7f808180000000
7f7f808080000000
807e808081000000
81807f8080000000
7f7e81817f000000
817f818081000000
807f807f7f000000
8181807f80000000
7e7e7f7e80000000
817e80807f000000
817f807f81000000
8081807f7f000000
7e80807f80000000
7f7e807f80000000
7f82808080000000
7f81808081000000
7f7e808080000000
807f7f7f7f000000
8081828280000000
808081817f000000
808081807f000000
81817f7f81000000
80817f817f000000
80817f807f000000
817f7f8080000000
8080807f7f000000
7f807f7f7f000000
7f8080807f000000
807f807f7f000000
817f817f81000000
81807f7f81000000
8080808181000000
807f7f8081000000
80807f8080000000
8180818080000000
8180808280000000
7f80808081000000
7f81808080000000
808080817f000000
808080807f000000
81817f7f80000000
8180807f80000000
8181807f7f000000
818081807f000000
8080808180000000
8080807f80000000
8180808081000000
8080807f81000000
817f7f7f81000000
8081818080000000
8181818081000000
8081808180000000
81807f8181000000
8181808080000000
7f7f7f8080000000
817f7e7f81000000
8080808080000000
7f817f7f7f000000
817f808180000000
8181808181000000
7f817f8081000000
81817f8181000000
81807f7f80000000
8080807f80000000
7f7e7f7f81000000
7e7d7f8281000000
807e7f8181000000
817e7f7f81000000
80817f8080000000
7f81818181000000
8081828182000000
807f808080000000
7f80808280000000
80807f8082000000
8181808180000000
8080818181000000
80807f8180000000
81817f8181000000
807f7f8080000000
8081808180000000
80807f807f000000
8080808080000000
7f807f7f7e000000
80807f7f80000000
807f81807f000000
8080808181000000
80807f807f000000
807f7f817f000000
8080808081000000
7f7f7f7f81000000
7f807f8181000000
7e807f8182000000
7e7f7f8182000000
8081808181000000
8181808080000000
807f817f80000000
81807f8081000000
7f7f807f80000000
807f808080000000
7e7e7d7f82000000
7e7d7f8183000000
7d7e7d7e82000000
807e7c7f82000000
82807e7f80000000
8182807e7e000000
8183818180000000
7f80818081000000
8180818280000000
80817f7f80000000
80807f8281000000
80807f807f000000
80807f8180000000
8180808080000000
818080807f000000
807f7f7e80000000
7f7f807f7f000000
7f80808080000000
81817f7f7f000000
8280808080000000
817f808180000000
818080807f000000
81817f8082000000
80817f7e7f000000
80807e8081000000
807f7f7f81000000
7f807e7f81000000
7f7f7f8183000000
7d7f7f8283000000
7e80808080000000
8081808081000000
8081808080000000
8181818181000000
81807f8081000000
807f7f8180000000
7f80818080000000
80807f7f80000000
817f7f8081000000
8180808081000000
8181817f80000000
8081808181000000
8080818081000000
7f81807f80000000
80817f817f000000
8181808180000000
8081807f80000000
817f818080000000
8180818080000000
818080807f000000
7f7f818080000000
8082808180000000
81817f8180000000
81817f8181000000
817f7f8080000000
7f7f7f8081000000
8181808080000000
8081808181000000
81807f8181000000
8080808180000000
8181818181000000
8281808180000000
818180827f000000
81807f8180000000
8180808280000000
7f7f818281000000
8082808181000000
8181808080000000
818081807f000000
7f80808080000000
8080808080000000
8181808080000000
8080807e7f000000
8081817f81000000
80807f8081000000
82807f7f81000000
817f818080000000
807f7f8082000000
8180807f82000000
807f808082000000
7f817f7f81000000
8180808080000000
808081807f000000
7e7f81807f000000
7f7f818080000000
8180808181000000
818081807f000000
80807f817f000000
7f807f7f80000000
7f80807f80000000
7f807f8181000000
8180818181000000
7f81808180000000
807f81807f000000
8180807f80000000
7f81818080000000
817f7f807f000000
807f807f7f000000
808181817f000000
8080807f7f000000
8080807f80000000
8180817f7f000000
8181808080000000
818181817f000000
8181817f80000000
7f7f7f7f81000000
8181807f7f000000
8080808081000000
8081818181000000
807f808180000000
8080808080000000
8081808181000000
827f7e7f81000000
817f7e8080000000
7f807f8080000000
7f7f818180000000
8180808181000000
807f808181000000
7f7f818080000000
7f7f808181000000
7f80818081000000
81817f807f000000
8081828181000000
7f80808080000000
8181808080000000
8080818080000000
8082818282000000
807f808081000000
8081807e80000000
8182828080000000
8081818180000000
808181807f000000
807f807d80000000
7f80807f7f000000
817f807f80000000
807f808181000000
8080807f7f000000
8180808080000000
7f8081807f000000
8080808080000000
807f808081000000
807f7f8081000000
8180818180000000
7f80808080000000
81807f7f7f000000
807f817f81000000
807f807f7f000000
807f818080000000
808081817f000000
807f808180000000
807f808080000000
8080818080000000
8182808180000000
807f808080000000
7f80808082000000
8081828180000000
81807f8080000000
7f80817f7f000000
7f7f807f80000000
81807f7f7f000000
7f81818181000000
8281818282000000
80817e8080000000
817f7f7e83000000
8081808181000000
8082818182000000
80817f7e80000000
81817f7e7f000000
8280808180000000
807f808080000000
8080808180000000
7f81807e7f000000
7f817f7e80000000
7f8181807f000000
7f80808080000000
808080807f000000
807f807f80000000
7f80808181000000
8080808080000000
8080808082000000
7f80808081000000
8080817f80000000
8180817f81000000
807f818180000000
7f80808180000000
7f80818081000000
7f80808081000000
7f81818281000000
818080807f000000
8281808080000000
817f808282000000
818180807f000000
7f7f80807f000000
7f80808081000000
7f7f7f8180000000
8180818081000000
8181817f7f000000
8080817f7f000000
7f8082807f000000
8081818181000000
7f81808081000000
81817f7f7f000000
8081807e7e000000
807f818080000000
8181807f7f000000
8081817f7f000000
7f8081807e000000
7f7f81817f000000
8080828080000000
7f8080817f000000
81817f8080000000
7f817f7e7f000000
818080807f000000
7f80818280000000
80807f7f81000000
8080818181000000
8081817f80000000
807f807f7f000000
7f80817f80000000
8180818180000000
807f7f7f7f000000
817f7f7f81000000
81807f7e7e000000
80807f7f7f000000
8081817f7f000000
8080807f81000000
817f7f807f000000
817f80807f000000
817e808180000000
807f81807f000000
7f80808180000000
80807f817f000000
817f7f807f000000
8180807f81000000
8180818181000000
7f80807f7f000000
8081808080000000
818081807f000000
7f81808080000000
8080808081000000
808180817f000000
807e7f7f80000000
7f80808081000000
8180808081000000
817f7f8080000000
807f7e7f81000000
7f807e7f80000000
817f7f7f80000000
807f7f7f80000000
80807f7f81000000
81807e8080000000
8182808382000000
7f817f8181000000
7e80807e7e000000
7e80828081000000
7f82838081000000
7f80818081000000
8081808181000000
7f817f7f7f000000
8080808080000000
7f81838081000000
807f808080000000
7f7f7f7f7f000000
81817e7f80000000
81807f807f000000
817f808080000000
7f80808180000000
817f7f8080000000
80817e7e80000000
81807e8080000000
7f7f7f7e7f000000
8182817f81000000
8080817f7f000000
7f81807f7f000000
8081817f80000000
8181838181000000
7f81818282000000
8080817e7f000000
807f807d80000000
7f80807e80000000
7f82827e80000000
8080808180000000
80817e7f81000000
80817e7f80000000
7f7f7f7e7f000000
7f7f807c7f000000
807e818182000000
818081837f000000
7f80808180000000
7e80808280000000
7c7f808281000000
817f81807f000000
8181818280000000
7f80818281000000
8082828080000000
7f80818282000000
807f808281000000
80807f8080000000
7f807f7e7f000000
8180817e81000000
807f818082000000
8080808282000000
7f81817f81000000
8081807d7f000000
807f817e82000000
8081827e7f000000
807f7f807f000000
807f808081000000
7f81808080000000
81807f8080000000
817e7e7f80000000
8080808180000000
7f80827f7f000000
8080808081000000
7f7f817f7f000000
8082828080000000
7f7e7e7f80000000
80807f7f80000000
80807f7f80000000
7f7f7f8080000000
8080807e7f000000
8080828180000000
8080828184000000
7d7e827f82000000
7b7f80807c000000
7f7f83837f000000
7f80828080000000
80807f8081000000
7f7e7f8081000000
8080817f80000000
8180807f80000000
807f81817f000000
8180808081000000
7f807f8080000000
7f807e8180000000
80807f8080000000
807f818182000000
8081807f81000000
80807f7e82000000
827f7f7e80000000
8180807f7f000000
7f7f7f8081000000
8081808180000000
81807f8080000000
817f7e8080000000
807e7e7f7e000000
8180828180000000
8181818080000000
8080807f7e000000
7d80808080000000
7d80807f7f000000
807f7f7f81000000
817f7f8081000000
80807f7e80000000
81807f7f81000000
807f80807f000000
7f7e81807f000000
8080808080000000
81807e8081000000
7f807d8280000000
7f7e7d8180000000
7f7e7e807f000000
8180808081000000
8081818081000000
8080807e7f000000
807f818080000000
8080808181000000
7f807f807f000000
80807e807f000000
817f7d8080000000
7f807f807f000000
807e808181000000
7f80808081000000
7f7f7e7f81000000
81807e7f80000000
7f7e7e7f81000000
7f807f8180000000
80817f8080000000
807f7f8081000000
8181808081000000
807f808082000000
8181818180000000
8082808280000000
7f80808080000000
8180827f7f000000
8181828081000000
8082808082000000
8181808081000000
8081817e7f000000
8281828080000000
8281828080000000
7e80808182000000
7f7f7f7e80000000
8080817e80000000
8180808080000000
8180808080000000
7f7f7f807f000000
808080827f000000
807f807f80000000
80807d8082000000
7e7f7d7e80000000
818080807f000000
8180807f7f000000
8180818181000000
818181817f000000
81807f8081000000
7f7f7f7f7f000000
7f817f817f000000
81807f807f000000
80807f8180000000
8081818180000000
807f80807f000000
7f80807f7f000000
7f81808080000000
8080818180000000
7f81808182000000
807f7f7e7f000000
8081817f7e000000
817f7f7f7f000000
807f818081000000
808081807f000000
8080807f7f000000
7f8081817f000000
807f807f7f000000
80807f817f000000
7f7f7f8080000000
817f7f7f7f000000
7f7f817f80000000
7f807f8181000000
8181818081000000
807f808180000000
81807f807f000000
7f8081807f000000
7e80807f80000000
7f80818181000000
7f7f7f817f000000
8181818080000000
8081808080000000
7f81828181000000
8181808080000000
7f7f808081000000
81807f7f7f000000
7f81818081000000
818081807f000000
8080808080000000
807f808282000000
7f81817f7f000000
7f80808080000000
807f7f8182000000
8081807f7f000000
8080818080000000
81817f807e000000
8180807f80000000
80807f7f80000000
81807f7f80000000
808080807e000000
80807f7f7f000000
7f7f7f8181000000
7f7f808081000000
8081828180000000
8080807f80000000
808080817f000000
8181818181000000
7f8081817f000000
807f808181000000
8180808081000000
80807f7f7f000000
7f817f807f000000
8080808080000000
8180818080000000
8181817f7f000000
80807f8181000000
8082818180000000
8080818080000000
8181818280000000
807f808182000000
80807f807f000000
80807f7f7f000000
818180807f000000
8080808181000000
8081818080000000
8081808081000000
7f80818280000000
8281828282000000
8180818081000000
7f807e7c7d000000
7f81807f7f000000
81817f807e000000
817e7f7e80000000
8080808081000000
8081808181000000
7f7f7f7f7f000000
807f7f807f000000
81807f7f80000000
818180807f000000
7f8080807f000000
8180818182000000
7f81807f80000000
7f80808180000000
8180808281000000
7f80808080000000
808080807f000000
817f808180000000
8080818081000000
8080817f80000000
7f7f817f80000000
80807f7f80000000
8180817f7f000000
8181808080000000
7f81828281000000
7f80818180000000
7f7f817f80000000
7f81808180000000
80817f817f000000
7f81818080000000
8080817f80000000
7f7f7f8080000000
80807f7f80000000
807f818080000000
7f80808180000000
807f818080000000
8080808080000000
7f807e7f80000000
818080807f000000
8180807f80000000
81807f7f81000000
80807f7f7f000000
80807f8180000000
8181808180000000
8181807f80000000
80817f8181000000
807e7f8080000000
817f808080000000
8180818180000000
7f7f80807f000000
807f81807f000000
80807f8080000000
807f7f7f80000000
7f80818080000000
8181808080000000
817f808180000000
81807f807f000000
808080807e000000
80807f7f7e000000
8080808080000000
8081808081000000
808080807f000000
80807f8180000000
7f7f818081000000
8080808080000000
7f7f807f80000000
81807f8081000000
7e7f817f80000000
7f807f8180000000
7f807f8081000000
7f807f8080000000
7f7f807f80000000
80807f8081000000
80817f7f80000000
8080808180000000
8181808080000000
8180818182000000
8180818180000000
7f817f8180000000
807f817f80000000
8080818181000000
8181818180000000
807f808180000000
808080817f000000
7f81808180000000
7f80818181000000
8081818080000000
808180817f000000
7f81818082000000
817f808080000000
8181817f7f000000
807e80807f000000
817f80807f000000
818181807f000000
8180808181000000
807f7f8082000000
8180807f80000000
7f7e7f7f80000000
8081808080000000
8080808081000000
81807f8081000000
80807f7f81000000
7f7f7f8081000000
807f807f81000000
7f807f8181000000
8080808080000000
817f807e7d000000
818080817f000000
8081817f80000000
80807f7f7f000000
817f81807f000000
8180808080000000
807f81807f000000
8180808081000000
8080818081000000
807f7f7f7f000000
8081808081000000
7f8080817f000000
807f81817f000000
7f7f81817f000000
8080817f81000000
828081807e000000
7f80828380000000
7f827f7f7f000000
8081817e80000000
8081807f7e000000
81807f7e7e000000
8180808080000000
8181817f80000000
808081807f000000
808080817f000000
807f807f81000000
7f7f7f7f7f000000
807f807f7f000000
8080817f7f000000
8080818180000000
7f80817e80000000
7f80817f80000000
7f7f81817f000000
81807f807f000000
827f81807f000000
80807f8082000000
8081818180000000
7f80818080000000
807f817f80000000
8081808080000000
8180827f7f000000
8080818180000000
7f807f7f80000000
818080807f000000
8080818180000000
817f7f8080000000
807f817f81000000
8081817f7f000000
7f8081807f000000
7f807f8080000000
80817f807e000000
808180817f000000
8181828080000000
8282807e7d000000
8282807e7e000000
817f807d7f000000
8082807f80000000
81807f7f80000000
7e81818080000000
808080807f000000
817f808180000000
8180808081000000
808080807f000000
8081807f81000000
807f807f80000000
8080808180000000
7f7f818080000000
8080808081000000
808080807f000000
82807f8080000000
81817f8081000000
80807e807f000000
807e80817f000000
807f81807f000000
817f807f80000000
8180808180000000
808280807e000000
8181828081000000
80817f807f000000
8080818180000000
807f7f8081000000
808081807f000000
7e80818180000000
817f808080000000
7f807f7f80000000
807f818281000000
807f808180000000
80807f7f81000000
8180808081000000
7f7f808081000000
81807e7e7f000000
7f807f8080000000
808181817f000000
8080818080000000
8080818080000000
7f817f8080000000
817f7f8080000000
7f7f7f8180000000
80807f8081000000
80817f8181000000
7f7e7f7f7f000000
807f7f7f7f000000
7f7f81807f000000
8080818080000000
807f7f8080000000
807f808080000000
7f8080807f000000
7f7f81817f000000
807f7f817f000000
817f808080000000
7f807f7d7f000000
8181808081000000
8180818081000000
8180807f80000000
8080818081000000
817f7f807f000000
8080807f81000000
807f7f8181000000
80807f8080000000
80807f8181000000
7f7f7f8080000000
7f7f818080000000
7f8180807f000000
808080807f000000
80807f7f7f000000
817f7f807f000000
807f807f7f000000
807f807f7f000000
7f80817f81000000
807f818080000000
807f818080000000
8080808080000000
80807f817f000000
81807f8080000000
807f807f80000000
7f807f817f000000
817f7f7f80000000
7f7f808080000000
80807f807f000000
80807f7f7f000000
7f7f808080000000
7f7f828180000000
7f7f7f8180000000
807e808080000000
7f81817f80000000
8080807f7f000000
7f8180817f000000
7f81808181000000
8080808080000000
8081808080000000
80807f7f80000000
81807f8180000000
8180817f80000000
808181807f000000
7f81808080000000
7f80808080000000
8080818181000000
80807f7f7f000000
7f80818080000000
8081818081000000
808180807f000000
8181818281000000
8081817f80000000
807f7f7f80000000
828081817f000000
808180807f000000
807f808282000000
8081808080000000
7f80807f80000000
8080807f7f000000
807f807f7f000000
8180818080000000
8081808082000000
7f807f8080000000
81807f8080000000
808282817f000000
7f7f828380000000
807e808080000000
8080808080000000
80807f8180000000
8080808080000000
7e7e7f8181000000
807f7f8180000000
7f807f8080000000
808180807f000000
817f807f7f000000
8181808081000000
807f808080000000
7f7f818180000000
807f808081000000
818080807f000000
8182808082000000
807f7f8082000000
80807e8081000000
817e80807f000000
80807f7f7f000000
7f8080817f000000
80807f8180000000
8181817f80000000
8081817f81000000
807f7f807f000000
8180818182000000
7f80818182000000
817f81807f000000
818282807f000000
7f807f7f7f000000
81807f817f000000
8181818080000000
7f807f807f000000
7f80808181000000
8082818380000000
7e7f818382000000
7f7b7e7f80000000
807c7c7f7d000000
827f7f8080000000
8081818080000000
807f818080000000
8181807f7f000000
8081808181000000
8280808181000000
807f7f8080000000
807e7e807e000000
8081808180000000
8180808181000000
7f80808080000000
8081808080000000
8080818181000000
807f808181000000
807f7f7f7f000000
828080817f000000
817f807f80000000
817f808081000000
8080807f81000000
8081808181000000
8181808081000000
7f7f807e7f000000
8181808181000000
807f808181000000
7f7f808180000000
7e80817f81000000
8280818180000000
818080807f000000
81807f8081000000
8081808180000000
807f7f7f7f000000
8180808080000000
7f7f7f817f000000
81807f7f7f000000
80817f8080000000
7f81818080000000
818081817f000000
8180807f7f000000
81817f807f000000
7f817f8080000000
81817f807f000000
817f807f80000000
808080807f000000
817f7f8180000000
807f7f7f81000000
81817f8080000000
80807f807f000000
808181817f000000
8081818280000000
8180808181000000
8080807f81000000
8080807f80000000
8080807f80000000
80817f8081000000
7f81808181000000
7f81818081000000
8180818080000000
7f80807f7f000000
8080818080000000
7f7f7f8081000000
81807f8081000000
7f8080807f000000
8080818181000000
8081818080000000
8180807e81000000
80807f8081000000
8180808181000000
817f808081000000
7f7f807f80000000
817f807f7f000000
8180808180000000
7f7f807f7f000000
8180807f80000000
8181818180000000
7f7f808181000000
7f80817f80000000
817f817f7f000000
81807f8180000000
8080808080000000
7f7f81817f000000
807f7e7e80000000
807f807f81000000
817f7f807f000000
817f80817f000000
8080818080000000
7f7f807f80000000
7f80818081000000
81807f7f7f000000
80807e7e7f000000
80807e7f81000000
8280808182000000
8180818181000000
7f8080807f000000
7f7f818080000000
81807f8080000000
807f808180000000
8080808081000000
80807f8080000000
8180808081000000
8180808281000000
7f817f8180000000
8080817f80000000
808080807f000000
8180807f80000000
7f807f8081000000
7f80807f81000000
8081808081000000
7f81817f7f000000
7f817f7f7f000000
80807f807e000000
8280808180000000
8080818181000000
7f7f7f7f81000000
80807e7f80000000
8181807f80000000
8282808081000000
7f80808080000000
8180808180000000
8080808081000000
82807f7f81000000
8180808180000000
8081818081000000
7f807f8180000000
807e7f7f80000000
8182807e7e000000
818382837f000000
8082817f81000000
807f818181000000
7f7f7f807f000000
8181807f80000000
828280807f000000
8180808180000000
807f818181000000
8080817f80000000
81807f7f80000000
80807f8081000000
817f818181000000
817f7f7f7f000000
7f7f7e7f80000000
7f817e7e80000000
8182808181000000
8180808180000000
8180808180000000
807f807f81000000
7f80808180000000
817f808080000000
8080808081000000
8081807f80000000
80807e7f7f000000
82807f7f7f000000
8280808180000000
807f7f8080000000
8081808180000000
81807f8081000000
81807f7f81000000
81807e7f80000000
7f81818181000000
7c7e7f7e7f000000
817e7e7e80000000
8282827f7f000000
858584807f000000
7f7f7f8080000000
7f81828180000000
8180818080000000
81817f817f000000
817f7f7f7f000000
808181817f000000
807e808081000000
8080808180000000
807f808181000000
8081818080000000
80807f8081000000
81807e807f000000
7f807d7e80000000
8181828282000000
8181828182000000
7f7f808180000000
817f80807f000000
80817f7f81000000
818180807f000000
8080817f80000000
8180818180000000
807f807f80000000
8180807f7e000000
827f7e7e7f000000
81807f7f80000000
80817f807f000000
8180818080000000
807f817f80000000
8180808080000000
81817f7f7f000000
8081807f80000000
81807f7f7f000000
8080818081000000
8080818081000000
8180808181000000
7f80828181000000
7f7f818281000000
7f8180817f000000
8081808180000000
817f807f80000000
807f807f81000000
7f80817f80000000
7f80818080000000
807f808180000000
80817f807f000000
807f808081000000
817f7f8181000000
8181808080000000
7f7f7f7f81000000
8080808180000000
7f7f808080000000
8081808081000000
8081817f80000000
8081808080000000
8080807f80000000
8080818081000000
8080828081000000
7f807f8080000000
8080817f80000000
8281807e7f000000
8080808180000000
807f808181000000
81817f807f000000
8180807f80000000
80807f8081000000
7f8180817f000000
8180807f7f000000
8080807f7f000000
808181807f000000
8180808080000000
8080808181000000
8080808180000000
8080817f81000000
817f80807f000000
8180808181000000
8180808080000000
7f7f7f7f80000000
817f7f8080000000
7f80808180000000
8080818080000000
7f7f818080000000
807f808081000000
8080807f80000000
80807f8180000000
8080808180000000
807f807e7f000000
7f807f7f7f000000
8081818081000000
7f807f817f000000
8281818080000000
807f808080000000
82807f7f7f000000
81807f7f7f000000
7f7f7f8081000000
7f7e818081000000
81817f7f7f000000
8180807f7f000000
817f7f8081000000
807f807f81000000
817f808081000000
8180807f7f000000
817f807f80000000
807f7f8081000000
80807f8081000000
817f808080000000
807f808080000000
808181807e000000
8081817f80000000
7f80817f80000000
8081807f80000000
817f7e7f7f000000
8080808080000000
8081808180000000
8081808180000000
8081817f80000000
8080807f80000000
7f7f7f8180000000
8081808181000000
808181807f000000
8180808182000000
808280817e000000
8080818281000000
7f7f808281000000
81807f8282000000
80817f7f7f000000
818181807f000000
8080828180000000
7f7f7f817f000000
7f807f8080000000
7f7f7f8080000000
817f82817f000000
817f817f80000000
80817f7f7f000000
7f7f7f7f81000000
7f7f7f8081000000
807f7f817f000000
7f7f7e807f000000
7f807f8080000000
7f7e808080000000
8180808180000000
8180817f80000000
817f7f7f7f000000
7f7f807f81000000
7f817f8180000000
8181818080000000
807d7d7f7e000000
807f818180000000
7f80828180000000
8180828280000000
808081807f000000
8081818180000000
8081808081000000
8081807f80000000
8080808080000000
8180808180000000
80807f7e7f000000
807f818380000000
8081828181000000
7f7e808080000000
80817f7f81000000
7f80808381000000
8181838181000000
8082817f7e000000
8082807d81000000
7f7f7f7f81000000
8081807f7f000000
8180807f80000000
807f808181000000
807e807f7f000000
7f80808081000000
807f7e8080000000
7e7f7f8080000000
8180808080000000
7f80818180000000
82817f807f000000
818181807f000000
8080808080000000
8181818080000000
808080807f000000
8181808081000000
7f7f7f7f7f000000
80807f8181000000
8181808080000000
7f80818281000000
7f81828181000000
8180818180000000
817f808080000000
80807f8081000000
81807f8080000000
8180807f81000000
8081808080000000
8080807f7f000000
807f7f8081000000
8081808180000000
8081808081000000
8182828180000000
8181818180000000
81817f7f80000000
8080807f81000000
7f7f808080000000
8080817f7f000000
807f7e7f7f000000
7f7f7f8081000000
807f808180000000
8080818081000000
8280828081000000
8080807f80000000
8180808080000000
7f8081807f000000
807f7f8181000000
8181828180000000
818080807f000000
80807f8081000000
807f807f81000000
7f8080817f000000
8080818180000000
808180807e000000
80817f7e80000000
80807f7f80000000
7f80808080000000
818080807f000000
80807f807f000000
81817f7f80000000
80807e7f80000000
8080808181000000
8181808081000000
82817f807f000000
80807f7f81000000
807f7f8080000000
7f7f7f7f80000000
7f8180807f000000
80807f807f000000
8180808180000000
7f7f808181000000
7f80818080000000
80807f7f7f000000
80817f7e7f000000
7f81808081000000
80807f8181000000
8180818081000000
80807f8080000000
80807f7f7f000000
807f808180000000
8081808081000000
7f7f807f81000000
827f7f7f7f000000
80807f7d7d000000
7f80817f7e000000
7f80808180000000
807f808082000000
818181817f000000
808181807f000000
818180807f000000
8180817f7e000000
8080807f7f000000
8081808081000000
8081807f80000000
8080817f80000000
8081807f80000000
8081818081000000
817f80807f000000
807f808081000000
818080817f000000
807f808081000000
80807f8080000000
7e7f817f80000000
8180808280000000
8080818080000000
7f807f8080000000
8082817f7e000000
80817f7f80000000
8080807f80000000
808181807e000000
7f80818381000000
807f818081000000
8281817f80000000
8081807f7f000000
818181817f000000
817f818281000000
7f7f7e8081000000
807f7f8081000000
8080828081000000
7f80808081000000
7d807e7e7f000000
7d7f7f8080000000
80807e7f81000000
80807f817f000000
7f807f7f80000000
8080817f80000000
8080818181000000
8181818180000000
81807f817f000000
818081807f000000
8080818080000000
80807f807f000000
827f818180000000
8180808080000000
818180817f000000
808080817f000000
7f7f7f7f81000000
7f7f807f7f000000
807f7e8080000000
7f80808080000000
80807f8180000000
817f808081000000
7e80807e80000000
7e81818180000000
7f80808281000000
7e80818381000000
7e807f807f000000
7f80808081000000
80807f7f7f000000
7f7f817f7f000000
81807f8180000000
81807f7f81000000
7f8082807e000000
817f808181000000
807e7f8183000000
7d7f7d7f84000000
7f7e818180000000
807e808081000000
807f808282000000
7f80818081000000
818081807f000000
8281807f7f000000
8181818180000000
817f807f7f000000
8180807e7f000000
807f81817f000000
8180818181000000
7f80808181000000
8080808181000000
8080808282000000
7f7e808383000000
7f7f7e7f80000000
8280818280000000
7f8180817f000000
817f7f7f81000000
8180808180000000
8281808181000000
80807f807e000000
80817f7e7f000000
7f7f7f8081000000
807e818281000000
807f818282000000
807f7f8080000000
807f808080000000
807f808180000000
8180808181000000
7f817f8081000000
818081807f000000
818181817f000000
7f80807e81000000
7f807f807f000000
807f7f8180000000
8281808182000000
8181818180000000
7f80807f80000000
80807f807f000000
7f81808081000000
81807f807f000000
8180807f7f000000
7f81808081000000
81817e8180000000
7f7f808081000000
8182818080000000
8081807f80000000
817f80807f000000
7f817f8081000000
81807f8180000000
7f81828180000000
80807f8080000000
81817f807f000000
81807f7f7f000000
81807f8180000000
8081808180000000
808180817f000000
8181818080000000
8082817f7d000000
7f7f807e7e000000
81807f8281000000
81817f807f000000
81807f8080000000
818181807f000000
81817f7f7f000000
8181808281000000
818181817f000000
8181818180000000
7f7f7f8081000000
8080807e80000000
8180817f81000000
8080818081000000
808080807f000000
807e818180000000
7f7f7f8181000000
807e808081000000
80807f8081000000
807f818080000000
8081818080000000
818181817f000000
7e7e808081000000
807f7f8181000000
80807f8180000000
7f8080807f000000
8080818181000000
8180807e7d000000
818081817f000000
8080808080000000
8181818280000000
81817e8080000000
807f7f7f7f000000
8180807f7f000000
80817f7f80000000
7f7f808181000000
817f80817f000000
807f7f8080000000
82817f807f000000
82807f807f000000
8082808080000000
8181817f80000000
818081807f000000
808180807f000000
8080807f7f000000
8180807f81000000
8082818180000000
80817f7e7e000000
8081818080000000
7f80808180000000
807f818081000000
807f80807f000000
8281807f7f000000
8080827f80000000
8181808080000000
8180808181000000
81807f7f81000000
817f807f7f000000
8081807f80000000
808081807e000000
8181808180000000
8181808180000000
8082818280000000
7f7f818281000000
807e808381000000
7e7e7e7e82000000
7e7f7f8080000000
7d80808181000000
7f7e7f8180000000
807f808181000000
7f807f8080000000
807e7f807f000000
817f808081000000
808180807f000000
81817f7f7f000000
8181818080000000
8181808180000000
83817f7e80000000
8180808080000000
8181808180000000
8281828282000000
8180808080000000
7e7e7f8081000000
7f7f7f807f000000
817f7f7f7f000000
7f80807f7f000000
8080818080000000
8180807f7f000000
8081818080000000
7f7f818181000000
81807f8081000000
807f808081000000
7f7e7f8080000000
7f807e7f7f000000
80807f8181000000
808081817f000000
81817f8080000000
828181817f000000
8082828381000000
8081818382000000
80807e8182000000
7d807e7d7e000000
7f7c7f7f80000000
807e7f807f000000
8181818181000000
8280807f7f000000
807f808181000000
807f808181000000
807f7f7f81000000
7f7f80807f000000
7f807f7f80000000
8180818180000000
8180807f80000000
7f817f7f80000000
8081808081000000
8081818182000000
818180807f000000
817f808080000000
81807f8081000000
80807f7f80000000
8081808080000000
8082808180000000
807f7f7f7e000000
8080818081000000
7e7f818181000000
7f7f7f8181000000
807f7f8081000000
807f7f8081000000
807f808080000000
808181807f000000
8081817f80000000
8181808181000000
7f7f808181000000
817f7f8080000000
817f807f80000000
7f7f808080000000
8081807f80000000
807f808080000000
807f808181000000
81817f7f80000000
817f80807f000000
7f7f818180000000
807f807f7f000000
808081807e000000
8180818080000000
8080818180000000
8182818180000000
8181817f7f000000
808180817f000000
80817f8180000000
818081817f000000
8181807f80000000
7f80808081000000
7f7e7f8081000000
817f7f7f80000000
8080807f80000000
8080808081000000
7f7f807f80000000
8080807f80000000
8080808081000000
8080808181000000
8081808081000000
82817f7f7f000000
818180807f000000
8080808080000000
8180818080000000
8180818080000000
8382817f80000000
8082818080000000
8180808181000000
8180818180000000
8180818180000000
807f808180000000
7f7e7f7f7f000000
817f7e7f7f000000
808080817f000000
82807f8182000000
8180818081000000
7f7f7f817f000000
7f817f8081000000
8181808180000000
8181807f7f000000
8080817f81000000
7f7f7f8181000000
807f818080000000
7f817f817f000000
807f817f80000000
8181818181000000
81817f8181000000
8181808080000000
807f818281000000
817f808081000000
7f807e7f80000000
7f807f807f000000
8081818180000000
8080828181000000
8181818180000000
7f7f7f807f000000
7f80828180000000
8181828180000000
8181818080000000
818081817f000000
817f7f7f80000000
8081817f81000000
80807f8181000000
8181818080000000
7f81808080000000
8080808081000000
7f807e7f80000000
7f7e7f8181000000
817e7f7f80000000
7f7f7f8081000000
8081808080000000
818081817f000000
8180808080000000
80807f7f81000000
807f7f8082000000
80817f7f7f000000
8181818081000000
8080808081000000
8080808080000000
7f817f8080000000
817f80817f000000
817f808080000000
80807f7f80000000
8080818081000000
8081807f80000000
807f7e7f7f000000
80817f7f81000000
81807e8080000000
807f808081000000
8180817f7f000000
80817f8181000000
807f7f8180000000
807f818181000000
8180818080000000
807f808080000000
8081817f81000000
817f808080000000
8081808080000000
8280818181000000
81807f8180000000
808181817f000000
807f818080000000
8081818080000000
7f81818080000000
807f81807f000000
8081807f81000000
80807f8081000000
807f7e8080000000
807e7f8081000000
8080807f81000000
808180807f000000
7f7f7f817f000000
7f807f8181000000
807f7f8081000000
7f80808081000000
7f807f807f000000
81807f7f81000000
80817f7e80000000
8180808082000000
80807e8081000000
8080807e80000000
8080808080000000
807f7f7f7f000000
7f7e7f7f7f000000
7f80808080000000
80807f807f000000
80807f8080000000
807f80807f000000
8080807f7f000000
8181808081000000
8180818180000000
81817f8080000000
807f7f8080000000
80807f7e80000000
81807f7f7f000000
8180808181000000
7f7f818180000000
8180808180000000
8180818181000000
8080818080000000
81817f807f000000
807f817f80000000
80807f7f81000000
807f7e8081000000
7f7f808180000000
81817f8181000000
80807f8080000000
818181817f000000
8181817f7f000000
7f80808080000000
81807f8081000000
8181817f80000000
8080818181000000
808181817f000000
8081808080000000
807f7f7f80000000
8080807f81000000
8080808080000000
7f81808180000000
808180807f000000
807f7f807f000000
7f8080817f000000
808080817f000000
818081817f000000
7f8181807f000000
7f81818080000000
7f80808081000000
807f81807f000000
808181807f000000
8281808180000000
8080807f80000000
8080807f80000000
8180818080000000
807f808080000000
8180808181000000
8081807e80000000
8180808181000000
7f7f808080000000
808081817f000000
7f80818181000000
8081818081000000
7f7f7f8081000000
807f7f8181000000
7f7f808081000000
8080818081000000
807f7f8181000000
7f80818081000000
808080807f000000
81807f8080000000
8181807f80000000
818180807f000000
8080818080000000
7f80808080000000
7f80818181000000
8081808080000000
818080817e000000
8181817f80000000
808080807f000000
7f7f808080000000
807f808181000000
80817f7f7f000000
818080807f000000
808180807e000000
807f807f80000000
808080817f000000
7f807f8181000000
8081808080000000
807f808080000000
8080818180000000
817f7f8180000000
818280817f000000
7f8180807f000000
8080818080000000
807f818180000000
808080807f000000
8081808280000000
818081827f000000
80807f8080000000
80817f7f7f000000
7f8080807f000000
8080818080000000
817f80807f000000
81817f7f7f000000
807f80817f000000
8180808080000000
828280807f000000
8080818081000000
8081818281000000
8282808080000000
807f7f7f7f000000
7f81818081000000
808081817f000000
7e807f8080000000
8080818281000000
81807f8080000000
8080818081000000
818181807f000000
807f807f7e000000
7f80818280000000
8181808081000000
8281817f7f000000
81807f817f000000
8180808081000000
8080808080000000
7f7e7f7f7f000000
8282817f7e000000
8080818081000000
8082818080000000
8282807f7e000000
7f7f7e7f7f000000
8081808180000000
807f7f8180000000
80817f807f000000
807f808080000000
8180817f80000000
7e7f808180000000
8180818180000000
7f7e7f8180000000
7f7f7f8280000000
8081818180000000
8081817f7f000000
8080808080000000
808080807e000000
80807f7f7f000000
8081808181000000
80817f7f81000000
8081817f7f000000
7f7f7f8081000000
8282808281000000
8180807f80000000
81807f7f7e000000
7f8181807f000000
817f818180000000
7f7e7f7f7f000000
8180808080000000
808181817e000000
8080828080000000
7f7c7d8081000000
7e7e808081000000
7e807e7f80000000
8182817f7f000000
7f7e80807f000000
8180818281000000
848381807f000000
818082817f000000
808180807f000000
8181808080000000
828081807f000000
7e7f807f80000000
7f7f7f8182000000
7f80807f81000000
80817f7f7f000000
807e7e7f81000000
7e7f7f8081000000
8081808081000000
7e7f7f8181000000
8081818280000000
80807f807f000000
807e7e807f000000
8080808081000000
8080817f80000000
807f808180000000
807f808081000000
8082808181000000
81807f8080000000
8081808080000000
8080808180000000
8080808080000000
7f7f7f807f000000
7f80807f81000000
8081807f80000000
8180808180000000
8180807f80000000
80807e807f000000
8080808080000000
808182817f000000
7e80808080000000
8081818080000000
80807f7f7f000000
817f808180000000
807f818180000000
8181808080000000
817f807f80000000
7f7f7f8080000000
7f80818181000000
8180818081000000
8080828181000000
7f817f807f000000
7e7e7f7f7f000000
8080808181000000
8081807f80000000
7f8081807f000000
8281828181000000
807f7f7f7f000000
8081807f7f000000
82817f807f000000
7f7f808081000000
8181808280000000
8180818181000000
80807f7f7f000000
7f7f818080000000
807f808080000000
8180818080000000
8180808180000000
7f80818080000000
7f7f80807f000000
8180817f7f000000
818080817f000000
7f7f807f80000000
8081808081000000
7f80818180000000
7f80807f7e000000
7f81808080000000
7f80807f81000000
8180808180000000
8080818080000000
8181828081000000
7f80807f7f000000
8180817f80000000
7f7f7f7f80000000
8181818180000000
8081828180000000
7f7f808080000000
807f80807f000000
807f7f8180000000
817e7f807e000000
7f8080817e000000
80817f8180000000
818180807f000000
8280808081000000
81817f7f80000000
808081807e000000
8080808080000000
8081818080000000
81807f807f000000
7f81828180000000
808181817f000000
817f807f7f000000
7f8081817e000000
7f80818081000000
7f80808080000000
7f7f7f7f7f000000
8080807f7f000000
808180807f000000
7f80808080000000
7f81817f80000000
80807f8081000000
81807f8282000000
8280808280000000
8080817f80000000
7f7f7f7f7f000000
817f7f7f7f000000
817f818081000000
8080808180000000
8082818080000000
7f7f7e7f7f000000
807f80807f000000
807f80807f000000
7f7f7f7f80000000
817f808180000000
80807f7f80000000
81807f7f80000000
8080817f80000000
8181807d7f000000
8180807e7e000000
8081808082000000
8080818182000000
7f817f7f81000000
8180808180000000
81807f7e7d000000
7f80818080000000
808080817f000000
7f807f807f000000
8081818180000000
7f7f7f817f000000
7f7e7e7f7e000000
7f7f81807e000000
8180818081000000
81807f7f82000000
807f80807f000000
8180808080000000
808081807f000000
808081807f000000
80807f807f000000
7f81807f80000000
7f7f7e7e80000000
807e808081000000
8180808083000000
807f808082000000
8081818182000000
8281818081000000
8081818081000000
7f80808181000000
7f7f7f8081000000
7f80808081000000
7e7e80807e000000
808080807f000000
8080807f81000000
81807e7e7f000000
81807f807f000000
8080817f80000000
7f7f7f8081000000
7f7e7f8181000000
8081828182000000
8081828180000000
8181818180000000
7f80807f81000000
8080817e7d000000
818080807d000000
808080807f000000
807f7e7e7e000000
80817f817e000000
81817f8081000000
7e7f7f7f81000000
7f80808080000000
7f7f7f8180000000
8080818180000000
7f80807f81000000
817f7f7f80000000
8081818180000000
807e7f7f80000000
817f80817f000000
8180808080000000
8080808080000000
8180818080000000
7f80808181000000
8180808180000000
7f807f8181000000
807f808080000000
7f7f81817f000000
7f80818082000000
7f82807f80000000
808181807e000000
818080807f000000
8181808180000000
807f817f82000000
7f80818182000000
7f80828081000000
8081828180000000
808080807f000000
8081808180000000
808180807f000000
81807f7f7e000000
818081807f000000
8180818081000000
8080808182000000
7f7f807f7f000000
7f81818180000000
807f808180000000
807f818180000000
807f808180000000
7f8180817f000000
818080817f000000
8081817f7f000000
8080807f80000000
807f7e7f80000000
807f807f80000000
817f818081000000
828281807f000000
808180807f000000
808080807f000000
8081817f7e000000
808081807f000000
808080817f000000
8180818180000000
807f807f7f000000
7e7f7f817f000000
80807f7f80000000
80817f7f7f000000
808180817f000000
81807f8183000000
80807f8080000000
7f7f808080000000
8181818180000000
808180817f000000
7f80807f81000000
7f7f80817f000000
818081807f000000
80807f807f000000
7f80808080000000
7f7f7f8080000000
8081818180000000
8180817f80000000
818080807f000000
7f7f808180000000
81807f8181000000
80807f7f80000000
7f807f7f7f000000
818180817f000000
817f80817f000000
81807f7f82000000
807f808081000000
7e7f7f8181000000
808180817f000000
8080808081000000
8180808181000000
7f807f8181000000
8181818080000000
818080807f000000
817f81807f000000
80817f8180000000
808080807f000000
808081817f000000
818180807f000000
8080808080000000
7f81807f80000000
7f7e807f81000000
7f7f808181000000
8180808081000000
8181818181000000
8181808081000000
7f80817f7f000000
808081807f000000
807f7f7f80000000
8281808181000000
8080818080000000
818082817f000000
817f7f807f000000
80807f7f81000000
807f80817f000000
8081818281000000
8181808180000000
7f80807f80000000
81817f7e80000000
8081817f80000000
7f7f7f8080000000
8180807f7f000000
7f8080817f000000
8081808081000000
8080817f7f000000
80807f8082000000
80817e7f81000000
7f80808180000000
817f80807f000000
81817f8180000000
81827f7f7f000000
817f807e7f000000
7f7f81817f000000
817f818180000000
817e7f8081000000
80807f8081000000
8080807f81000000
8181808081000000
81817f7f7f000000
817f80817f000000
8081808080000000
7f81808081000000
7f80807e80000000
807f7f8081000000
8281808181000000
7f7f818081000000
7f81808180000000
8081808080000000
818081807f000000
8080808080000000
8282827e7e000000
818080807f000000
8180807e7e000000
82817c7f80000000
8282808081000000
8080807f80000000
82807e7d80000000
7f7f7e7e7f000000
7f7f818080000000
8081818081000000
81807f8080000000
7f80807f81000000
8180818180000000
8081817f80000000
818080807f000000
81817f7f7f000000
80807f817f000000
817f7f7f80000000
807e807f7f000000
8180808181000000
80807e8081000000
808080807f000000
7f80818180000000
8080808080000000
807f807f80000000
8180818080000000
7f81818080000000
7f80807f81000000
7f80808182000000
8080808081000000
80807f8180000000
8180818080000000
818180817f000000
7f81808080000000
807f7f7f7f000000
808081817f000000
8180818080000000
8181828180000000
8081807e80000000
808180807f000000
80817f7e7f000000
817f807f81000000
7f81818081000000
8080808080000000
8180808080000000
807f808081000000
808180807f000000
8181818181000000
818180807f000000
80807f7f80000000
80807f8181000000
818181807f000000
8081808080000000
7f7f807f80000000
817f807f80000000
8181807f81000000
807f7f8081000000
7f8181827f000000
8080808180000000
817f808181000000
81807e7f81000000
807f7e7e81000000
7f7e7e807f000000
7f80818280000000
7f81818181000000
80817f7e81000000
7f807f7f7f000000
80807f8281000000
817f818280000000
7f7f80817f000000
807f7f7e80000000
7f817f8181000000
8080818181000000
8180807f80000000
8180808080000000
7f80808180000000
8081817f80000000
818280807f000000
7f80818081000000
8081808180000000
7f7f80817f000000
8080807f7f000000
81807f7f7f000000
7f80808182000000
8180818180000000
807f807f80000000
817f818080000000
8180818080000000
7f8080817f000000
7f8181807f000000
7f7f80817f000000
7f80817f7f000000
7f80807f80000000
807f807f80000000
8180808180000000
7e7e817f80000000
7f81808180000000
7f8081807f000000
80817f7f80000000
807f7f7f80000000
817f80817f000000
818080817e000000
8181807e80000000
817f808182000000
81817f8181000000
8080818180000000
808180807f000000
7f817f7f81000000
8180808081000000
7f81818080000000
817e808181000000
7f7f818181000000
7f8183807f000000
808080807f000000
8180807f7f000000
808080817f000000
7f7e7e7f80000000
7f80808081000000
808181817f000000
808081807f000000
8081808081000000
817f7e8080000000
8080807f80000000
8081808180000000
7f81808080000000
8180818182000000
807f7f7f80000000
8181807f7f000000
8080807f7f000000
8080808080000000
81807f8080000000
8080817f81000000
8181808080000000
81817f7f7e000000
81807f807f000000
7f7e808080000000
8080818180000000
8181817f80000000
7f80807f7f000000
808080807f000000
80817f817f000000
7f7f808280000000
81807f7e80000000
8080817f7f000000
7f80808081000000
807f7f8081000000
817f817f7f000000
81817f807f000000
7f7f7f8180000000
817f7f7f81000000
8280818081000000
807f7e7f81000000
7f80818282000000
808181817f000000
8081807f7e000000
7f80818181000000
81807f8080000000
807f817f7f000000
7f807f8081000000
7f80808181000000
7e80818080000000
7e807e7e7f000000
7f7e7f7f81000000
82817f8180000000
818282817e000000
817c7d8080000000
7e7e818180000000
8282848483000000
818182817f000000
817f807f81000000
81807f8180000000
807f817f80000000
80807f7e7f000000
80817f7f81000000
7f80807f81000000
818080807f000000
8180808080000000
7f7f817f7f000000
7f7e80807f000000
8181828180000000
7f7f7f8180000000
8181808080000000
7f807f7d7e000000
7f80808080000000
80817f8180000000
8081808081000000
817f7f7e81000000
817f7e8081000000
807f808081000000
807f817e7f000000
807f808080000000
81817f7f80000000
808080807f000000
7f807f8081000000
8180808080000000
7f81818081000000
8081828080000000
81807e7e7f000000
81807f7f82000000
7f80808182000000
7f7f7f8080000000
808082817f000000
